<pad>	0
<unk>	0
<s>	0
</s>	0
▁t	-0
▁a	-1
in	-2
he	-3
re	-4
on	-5
▁the	-6
er	-7
at	-8
en	-9
▁c	-10
▁s	-11
es	-12
▁o	-13
it	-14
an	-15
▁w	-16
al	-17
or	-18
▁p	-19
is	-20
▁in	-21
▁b	-22
nd	-23
▁f	-24
ed	-25
ing	-26
▁to	-27
▁m	-28
ion	-29
ic	-30
ar	-31
▁of	-32
ro	-33
▁and	-34
▁d	-35
ou	-36
ent	-37
st	-38
le	-39
▁th	-40
▁e	-41
▁h	-42
▁re	-43
om	-44
▁n	-45
il	-46
ve	-47
as	-48
ly	-49
ct	-50
▁l	-51
▁g	-52
▁be	-53
ut	-54
ation	-55
▁is	-56
▁T	-57
▁that	-58
ol	-59
im	-60
ver	-61
ce	-62
se	-63
▁A	-64
ment	-65
▁de	-66
ur	-67
ot	-68
▁for	-69
ld	-70
▁I	-71
ra	-72
ies	-73
ig	-74
id	-75
et	-76
ow	-77
▁on	-78
▁pro	-79
▁it	-80
▁st	-81
ch	-82
nt	-83
ill	-84
ir	-85
ad	-86
▁u	-87
ate	-88
ul	-89
▁con	-90
▁–	-91
▁mo	-92
lo	-93
▁S	-94
▁B	-95
ers	-96
▁as	-97
ity	-98
▁The	-99
▁are	-100
▁wh	-101
▁E	-102
est	-103
▁su	-104
▁cou	-105
ith	-106
th	-107
ge	-108
▁al	-109
her	-110
pe	-111
▁C	-112
▁ne	-113
ab	-114
▁r	-115
ay	-116
ort	-117
ess	-118
▁ex	-119
us	-120
▁with	-121
ive	-122
ial	-123
▁an	-124
▁U	-125
ain	-126
▁ha	-127
ter	-128
iv	-129
con	-130
res	-131
if	-132
▁com	-133
▁we	-134
▁not	-135
ke	-136
ist	-137
▁wor	-138
ac	-139
▁M	-140
am	-141
▁by	-142
▁have	-143
▁W	-144
ust	-145
em	-146
▁has	-147
pp	-148
qu	-149
conom	-150
▁will	-151
▁en	-152
ould	-153
▁he	-154
▁se	-155
ia	-156
over	-157
▁sh	-158
▁count	-159
▁le	-160
and	-161
um	-162
▁P	-163
op	-164
▁G	-165
oc	-166
▁ch	-167
igh	-168
▁F	-169
▁v	-170
▁econom	-171
▁countr	-172
▁im	-173
rom	-174
iz	-175
▁R	-176
ant	-177
▁or	-178
▁pol	-179
▁more	-180
os	-181
ions	-182
▁from	-183
ical	-184
▁at	-185
ure	-186
▁2	-187
uro	-188
art	-189
▁y	-190
ast	-191
ff	-192
un	-193
ect	-194
▁their	-195
ap	-196
ome	-197
▁inc	-198
▁imp	-199
▁“	-200
▁In	-201
▁N	-202
ong	-203
▁can	-204
▁its	-205
ore	-206
▁ad	-207
ric	-208
od	-209
ib	-210
ans	-211
▁But	-212
ru	-213
du	-214
▁res	-215
able	-216
▁int	-217
el	-218
▁20	-219
▁un	-220
ich	-221
ther	-222
red	-223
ak	-224
anc	-225
end	-226
▁ag	-227
▁countries	-228
overn	-229
ear	-230
▁Euro	-231
cc	-232
ight	-233
▁would	-234
▁than	-235
▁Europe	-236
▁they	-237
all	-238
row	-239
ance	-240
▁ab	-241
ost	-242
▁this	-243
gh	-244
▁was	-245
▁govern	-246
ud	-247
pt	-248
▁cont	-249
▁which	-250
▁D	-251
▁1	-252
ard	-253
reat	-254
rou	-255
ational	-256
ations	-257
▁comp	-258
▁world	-259
lop	-260
▁O	-261
velop	-262
▁fin	-263
ary	-264
bal	-265
▁j	-266
▁(	-267
▁man	-268
ous	-269
▁whe	-270
▁all	-271
▁Th	-272
▁US	-273
▁government	-274
ates	-275
out	-276
ip	-277
ie	-278
ult	-279
lic	-280
▁dis	-281
lobal	-282
mer	-283
ike	-284
ign	-285
▁pe	-286
ress	-287
▁year	-288
act	-289
ven	-290
ine	-291
ated	-292
ide	-293
ren	-294
ks	-295
▁Ch	-296
▁rec	-297
ub	-298
ree	-299
orm	-300
▁pl	-301
▁new	-302
▁H	-303
og	-304
one	-305
alth	-306
▁exp	-307
▁part	-308
ark	-309
▁do	-310
▁grow	-311
▁reg	-312
age	-313
▁economic	-314
▁develop	-315
▁me	-316
are	-317
▁but	-318
▁out	-319
▁global	-320
▁tr	-321
ag	-322
▁inv	-323
ors	-324
▁been	-325
▁need	-326
ile	-327
ities	-328
ople	-329
▁so	-330
▁eff	-331
▁Un	-332
▁bec	-333
▁one	-334
our	-335
ence	-336
▁other	-337
ep	-338
▁dec	-339
▁inf	-340
▁polic	-341
▁L	-342
ime	-343
▁people	-344
ll	-345
so	-346
ction	-347
ern	-348
uss	-349
▁like	-350
▁over	-351
ose	-352
ally	-353
▁Chin	-354
ris	-355
erm	-356
▁also	-357
▁comm	-358
ower	-359
ens	-360
ake	-361
▁ind	-362
▁acc	-363
arket	-364
▁und	-365
▁ris	-366
ition	-367
▁tra	-368
▁could	-369
▁inter	-370
ood	-371
▁most	-372
itical	-373
▁Af	-374
▁pre	-375
ian	-376
▁lead	-377
▁K	-378
illion	-379
pport	-380
▁financ	-381
▁should	-382
▁invest	-383
ire	-384
ere	-385
reas	-386
▁ref	-387
ue	-388
▁work	-389
▁As	-390
ility	-391
▁such	-392
▁growth	-393
▁cl	-394
▁only	-395
▁Russ	-396
▁J	-397
ited	-398
▁And	-399
▁201	-400
yst	-401
▁health	-402
ublic	-403
ack	-404
▁many	-405
ace	-406
ord	-407
au	-408
ank	-409
▁bet	-410
▁who	-411
ments	-412
▁cons	-413
▁market	-414
▁about	-415
ild	-416
▁per	-417
ident	-418
ach	-419
▁no	-420
ew	-421
▁sp	-422
ystem	-423
▁pr	-424
amp	-425
▁even	-426
▁there	-427
▁long	-428
▁China	-429
av	-430
ail	-431
ange	-432
▁must	-433
▁produ	-434
▁It	-435
uch	-436
▁qu	-437
▁some	-438
per	-439
▁str	-440
vent	-441
▁increas	-442
und	-443
uc	-444
▁financial	-445
▁te	-446
▁them	-447
old	-448
low	-449
ber	-450
ative	-451
▁em	-452
▁under	-453
▁now	-454
ces	-455
▁St	-456
▁k	-457
▁dem	-458
very	-459
▁system	-460
▁up	-461
de	-462
▁rem	-463
▁political	-464
ms	-465
▁app	-466
ough	-467
▁years	-468
▁cap	-469
▁Ind	-470
▁Afric	-471
arly	-472
▁soc	-473
▁when	-474
cy	-475
▁off	-476
▁these	-477
▁us	-478
lud	-479
▁country	-480
ious	-481
▁were	-482
▁rep	-483
▁if	-484
▁his	-485
erv	-486
▁po	-487
ital	-488
ble	-489
▁how	-490
▁19	-491
▁ra	-492
ution	-493
▁This	-494
▁European	-495
arg	-496
▁public	-497
▁policy	-498
iff	-499
imate	-500
ause	-501
meric	-502
int	-503
olog	-504
lect	-505
bt	-506
ish	-507
▁am	-508
▁far	-509
ating	-510
ang	-511
▁ar	-512
ax	-513
ame	-514
ism	-515
gy	-516
▁prog	-517
ater	-518
▁fir	-519
ory	-520
▁ro	-521
▁economy	-522
▁may	-523
rough	-524
▁power	-525
▁into	-526
ced	-527
ons	-528
▁Americ	-529
▁tw	-530
ives	-531
ount	-532
▁cur	-533
▁what	-534
▁just	-535
▁much	-536
▁prov	-537
▁rel	-538
own	-539
ific	-540
▁time	-541
▁United	-542
oss	-543
pect	-544
ient	-545
ov	-546
ruct	-547
▁def	-548
ization	-549
ase	-550
iver	-551
▁trans	-552
▁cris	-553
▁cent	-554
we	-555
▁high	-556
ass	-557
ert	-558
▁sc	-559
▁att	-560
ond	-561
▁import	-562
▁act	-563
▁Russia	-564
cess	-565
▁support	-566
ry	-567
▁had	-568
read	-569
00	-570
▁ac	-571
▁intern	-572
its	-573
ump	-574
lp	-575
ade	-576
▁For	-577
iet	-578
chn	-579
uring	-580
▁inst	-581
▁includ	-582
ise	-583
▁help	-584
▁ow	-585
▁way	-586
resident	-587
ef	-588
▁diff	-589
ality	-590
ics	-591
ind	-592
▁those	-593
ible	-594
▁effect	-595
▁Tr	-596
rit	-597
▁examp	-598
urn	-599
ural	-600
any	-601
▁development	-602
.”	-603
erest	-604
▁conf	-605
ize	-606
ual	-607
ject	-608
▁contin	-609
▁again	-610
▁leaders	-611
ok	-612
hed	-613
▁well	-614
ists	-615
▁any	-616
ful	-617
▁while	-618
▁mon	-619
▁co	-620
▁techn	-621
▁add	-622
hip	-623
ty	-624
▁adv	-625
ener	-626
▁our	-627
▁example	-628
iven	-629
ward	-630
hen	-631
▁tax	-632
▁international	-633
vel	-634
round	-635
▁cost	-636
▁200	-637
opul	-638
▁governments	-639
pec	-640
▁crisis	-641
▁ed	-642
ound	-643
▁Y	-644
iss	-645
ob	-646
▁fact	-647
ential	-648
▁redu	-649
▁end	-650
ice	-651
▁recent	-652
▁des	-653
▁popul	-654
▁mod	-655
ings	-656
▁Africa	-657
ied	-658
▁EU	-659
▁two	-660
▁proble	-661
▁remain	-662
▁because	-663
▁interest	-664
▁change	-665
ite	-666
allen	-667
▁ent	-668
ration	-669
arge	-670
▁right	-671
eed	-672
▁Trump	-673
▁debt	-674
ral	-675
loy	-676
ween	-677
▁requ	-678
▁less	-679
▁fore	-680
▁educ	-681
utions	-682
▁war	-683
ues	-684
ploy	-685
▁ass	-686
▁child	-687
▁pric	-688
▁sim	-689
▁appro	-690
▁partic	-691
▁between	-692
gan	-693
▁prot	-694
▁kn	-695
ram	-696
▁national	-697
▁Germ	-698
oth	-699
▁fund	-700
ures	-701
rent	-702
▁social	-703
term	-704
▁first	-705
aj	-706
itt	-707
ne	-708
aw	-709
▁Wh	-710
ized	-711
omen	-712
ption	-713
ability	-714
▁go	-715
ices	-716
▁sur	-717
▁sign	-718
▁own	-719
▁technolog	-720
lear	-721
▁large	-722
orts	-723
rib	-724
▁where	-725
▁you	-726
▁commun	-727
aking	-728
▁col	-729
les	-730
▁sec	-731
▁last	-732
▁million	-733
▁ob	-734
▁ben	-735
▁euro	-736
▁bo	-737
▁resp	-738
led	-739
▁challen	-740
▁investment	-741
▁make	-742
▁ext	-743
ath	-744
ajor	-745
form	-746
▁med	-747
ten	-748
sel	-749
▁important	-750
▁result	-751
▁good	-752
▁every	-753
ts	-754
anks	-755
▁climate	-756
▁region	-757
▁real	-758
▁state	-759
▁against	-760
▁est	-761
iness	-762
▁major	-763
ving	-764
day	-765
▁If	-766
other	-767
als	-768
▁markets	-769
ince	-770
ready	-771
▁capital	-772
ctor	-773
▁become	-774
ically	-775
▁conc	-776
▁impro	-777
▁af	-778
▁sub	-779
ict	-780
ink	-781
cal	-782
ather	-783
▁trade	-784
▁sol	-785
get	-786
▁benef	-787
ract	-788
uture	-789
▁ke	-790
▁dep	-791
ri	-792
▁current	-793
ron	-794
struct	-795
▁De	-796
▁women	-797
▁through	-798
▁risk	-799
▁gener	-800
▁billion	-801
▁great	-802
▁indust	-803
xt	-804
▁bu	-805
▁bank	-806
▁aut	-807
▁hum	-808
▁product	-809
▁West	-810
▁serv	-811
▁instit	-812
▁That	-813
iron	-814
ivers	-815
ging	-816
▁both	-817
▁too	-818
▁future	-819
▁Wor	-820
ually	-821
▁prom	-822
ines	-823
▁regul	-824
▁already	-825
▁V	-826
▁including	-827
▁low	-828
▁education	-829
▁sm	-830
usiness	-831
urity	-832
▁seem	-833
stain	-834
ning	-835
▁emer	-836
▁access	-837
acc	-838
▁priv	-839
▁policies	-840
way	-841
▁sustain	-842
▁cor	-843
utin	-844
ting	-845
▁today	-846
▁infl	-847
▁reform	-848
▁rates	-849
▁after	-850
▁sa	-851
eg	-852
ially	-853
▁ret	-854
▁use	-855
ss	-856
▁Int	-857
▁3	-858
▁More	-859
ilit	-860
▁economies	-861
▁better	-862
ision	-863
▁protect	-864
ases	-865
▁banks	-866
viron	-867
▁being	-868
▁val	-869
DP	-870
▁level	-871
ved	-872
▁To	-873
arch	-874
0%	-875
idd	-876
▁still	-877
▁President	-878
▁aff	-879
▁mem	-880
▁job	-881
▁Putin	-882
▁often	-883
▁We	-884
▁iss	-885
ergy	-886
ccess	-887
▁States	-888
▁bas	-889
),	-890
ily	-891
vironment	-892
▁br	-893
omm	-894
▁Se	-895
ense	-896
▁es	-897
▁back	-898
▁lo	-899
▁does	-900
▁developing	-901
).	-902
ck	-903
▁ens	-904
▁equ	-905
pportun	-906
▁World	-907
▁set	-908
ending	-909
anies	-910
▁human	-911
▁strong	-912
ft	-913
▁know	-914
▁Is	-915
▁take	-916
ined	-917
▁With	-918
▁particul	-919
inc	-920
rem	-921
▁children	-922
▁fail	-923
▁strate	-924
▁opportun	-925
▁same	-926
uge	-927
atic	-928
▁main	-929
iew	-930
ng	-931
ployment	-932
ources	-933
▁creat	-934
▁likely	-935
▁leg	-936
▁business	-937
,”	-938
▁disc	-939
pl	-940
ata	-941
less	-942
gg	-943
ider	-944
▁Germany	-945
▁stand	-946
▁hig	-947
▁threat	-948
▁environment	-949
▁ins	-950
▁plan	-951
nov	-952
▁companies	-953
▁el	-954
ared	-955
▁energy	-956
▁cred	-957
▁success	-958
▁might	-959
here	-960
iddle	-961
▁Intern	-962
not	-963
▁GDP	-964
▁demand	-965
▁agree	-966
▁Gree	-967
▁start	-968
▁lif	-969
▁ord	-970
▁made	-971
abor	-972
▁Bank	-973
ingly	-974
▁India	-975
chie	-976
▁ant	-977
▁ine	-978
▁pur	-979
ph	-980
ertain	-981
▁private	-982
ior	-983
▁America	-984
ants	-985
ross	-986
iving	-987
zone	-988
▁toward	-989
ges	-990
▁cour	-991
▁pot	-992
abl	-993
fore	-994
lement	-995
ents	-996
▁rest	-997
▁dise	-998
uel	-999
▁see	-1000
▁East	-1001
▁fac	-1002
▁dom	-1003
▁term	-1004
io	-1005
▁av	-1006
osed	-1007
▁prop	-1008
structure	-1009
▁ann	-1010
▁innov	-1011
▁problem	-1012
▁achie	-1013
▁address	-1014
▁care	-1015
▁approach	-1016
ians	-1017
▁loc	-1018
▁three	-1019
▁treat	-1020
por	-1021
ience	-1022
▁data	-1023
▁around	-1024
▁pay	-1025
ably	-1026
▁account	-1027
▁progress	-1028
cond	-1029
▁cre	-1030
▁consum	-1031
▁foreign	-1032
imes	-1033
▁ph	-1034
▁del	-1035
ury	-1036
▁call	-1037
▁without	-1038
▁few	-1039
ars	-1040
▁Sy	-1041
▁min	-1042
▁pers	-1043
▁since	-1044
▁effective	-1045
▁potential	-1046
▁ide	-1047
▁num	-1048
arget	-1049
iscal	-1050
▁cannot	-1051
▁meas	-1052
▁short	-1053
ency	-1054
ering	-1055
▁contro	-1056
ades	-1057
▁imm	-1058
land	-1059
▁among	-1060
rastructure	-1061
▁At	-1062
etary	-1063
▁reas	-1064
ever	-1065
▁arg	-1066
▁rese	-1067
overty	-1068
▁another	-1069
▁point	-1070
▁eurozone	-1071
▁prof	-1072
cing	-1073
▁compet	-1074
hor	-1075
▁democ	-1076
▁There	-1077
▁eas	-1078
ately	-1079
▁quest	-1080
▁needed	-1081
▁Indeed	-1082
▁sector	-1083
▁ur	-1084
eral	-1085
▁systems	-1086
▁clo	-1087
apan	-1088
line	-1089
ocus	-1090
tern	-1091
stand	-1092
air	-1093
▁poss	-1094
roup	-1095
▁food	-1096
ute	-1097
▁supp	-1098
▁increase	-1099
▁ful	-1100
ell	-1101
ier	-1102
ran	-1103
▁op	-1104
▁signific	-1105
▁efforts	-1106
ivid	-1107
▁milit	-1108
pecially	-1109
▁dire	-1110
ool	-1111
▁So	-1112
ork	-1113
▁target	-1114
hing	-1115
oney	-1116
▁expect	-1117
▁dr	-1118
▁higher	-1119
ivity	-1120
▁fiscal	-1121
▁hist	-1122
▁Japan	-1123
▁prices	-1124
▁institutions	-1125
▁states	-1126
bers	-1127
▁needs	-1128
▁infrastructure	-1129
▁ser	-1130
▁central	-1131
ered	-1132
▁rate	-1133
▁elect	-1134
▁dist	-1135
▁provid	-1136
▁He	-1137
▁hard	-1138
▁prevent	-1139
▁did	-1140
▁focus	-1141
▁poverty	-1142
ness	-1143
▁pos	-1144
▁water	-1145
ouse	-1146
▁Brit	-1147
▁costs	-1148
▁neg	-1149
▁then	-1150
▁turn	-1151
▁Union	-1152
▁project	-1153
ves	-1154
▁order	-1155
rop	-1156
▁exper	-1157
▁model	-1158
▁pres	-1159
ged	-1160
▁bel	-1161
▁significant	-1162
▁Syr	-1163
▁mat	-1164
▁money	-1165
▁Moreover	-1166
ese	-1167
hold	-1168
outh	-1169
▁law	-1170
eren	-1171
road	-1172
▁next	-1173
0,	-1174
▁poor	-1175
▁4	-1176
▁vacc	-1177
▁especially	-1178
cept	-1179
▁chang	-1180
▁lim	-1181
ished	-1182
ollow	-1183
▁least	-1184
▁though	-1185
ages	-1186
▁down	-1187
ick	-1188
itiz	-1189
▁report	-1190
▁security	-1191
▁my	-1192
most	-1193
▁rev	-1194
▁const	-1195
ale	-1196
▁services	-1197
ued	-1198
▁put	-1199
▁before	-1200
ner	-1201
▁organ	-1202
▁ev	-1203
▁5	-1204
ogn	-1205
▁beh	-1206
iety	-1207
▁car	-1208
▁process	-1209
▁resources	-1210
▁role	-1211
▁small	-1212
▁improve	-1213
▁require	-1214
▁An	-1215
itions	-1216
▁play	-1217
▁income	-1218
ining	-1219
▁very	-1220
ove	-1221
▁Re	-1222
▁er	-1223
vere	-1224
▁They	-1225
▁form	-1226
▁population	-1227
▁suff	-1228
ON	-1229
▁Fed	-1230
erent	-1231
▁stud	-1232
ening	-1233
▁course	-1234
▁workers	-1235
ban	-1236
▁decades	-1237
▁military	-1238
aly	-1239
min	-1240
chool	-1241
icial	-1242
▁author	-1243
▁Russian	-1244
for	-1245
▁citiz	-1246
anced	-1247
▁simp	-1248
▁allow	-1249
imin	-1250
aus	-1251
▁show	-1252
▁view	-1253
rab	-1254
▁why	-1255
▁cr	-1256
▁asse	-1257
000	-1258
kra	-1259
▁follow	-1260
▁larg	-1261
▁move	-1262
▁group	-1263
▁establ	-1264
pid	-1265
ners	-1266
▁big	-1267
▁labor	-1268
ances	-1269
akes	-1270
▁One	-1271
ird	-1272
omes	-1273
▁Ukra	-1274
▁provide	-1275
▁American	-1276
▁weak	-1277
ators	-1278
▁past	-1279
▁rather	-1280
▁build	-1281
▁control	-1282
vers	-1283
▁month	-1284
▁share	-1285
▁ap	-1286
▁pat	-1287
▁When	-1288
▁belie	-1289
▁young	-1290
▁polit	-1291
▁different	-1292
▁On	-1293
icult	-1294
urther	-1295
te	-1296
▁hal	-1297
ording	-1298
▁rise	-1299
▁inform	-1300
▁citizens	-1301
▁Comm	-1302
▁ensure	-1303
▁difficult	-1304
itive	-1305
▁find	-1306
▁clear	-1307
▁life	-1308
▁meet	-1309
oll	-1310
▁her	-1311
▁press	-1312
▁credit	-1313
aps	-1314
▁president	-1315
▁conflic	-1316
▁particularly	-1317
▁gu	-1318
▁spec	-1319
▁whether	-1320
self	-1321
ittle	-1322
▁challenges	-1323
ission	-1324
▁recogn	-1325
▁Develop	-1326
▁continue	-1327
sequ	-1328
▁news	-1329
▁given	-1330
ex	-1331
▁ele	-1332
▁means	-1333
akers	-1334
▁pros	-1335
▁consider	-1336
▁say	-1337
itional	-1338
arm	-1339
▁By	-1340
▁eng	-1341
▁rul	-1342
▁Arab	-1343
▁come	-1344
icient	-1345
▁These	-1346
▁Al	-1347
▁oil	-1348
▁case	-1349
▁emerging	-1350
▁land	-1351
ibility	-1352
▁return	-1353
ik	-1354
▁found	-1355
up	-1356
ash	-1357
▁used	-1358
acy	-1359
rug	-1360
▁non	-1361
▁yet	-1362
▁remains	-1363
▁local	-1364
▁little	-1365
lus	-1366
▁met	-1367
▁nat	-1368
▁reduce	-1369
▁problems	-1370
▁research	-1371
▁fam	-1372
▁gain	-1373
ention	-1374
▁South	-1375
▁technology	-1376
▁understand	-1377
▁jobs	-1378
▁key	-1379
ences	-1380
where	-1381
▁number	-1382
▁Fr	-1383
▁opp	-1384
▁Iran	-1385
▁impact	-1386
▁benefits	-1387
▁industry	-1388
▁New	-1389
vention	-1390
ying	-1391
▁Nor	-1392
▁cut	-1393
ricult	-1394
uclear	-1395
ead	-1396
estic	-1397
▁reason	-1398
ased	-1399
▁cond	-1400
▁during	-1401
makers	-1402
▁enough	-1403
izing	-1404
▁lower	-1405
▁Fin	-1406
▁areas	-1407
olution	-1408
▁Greece	-1409
▁second	-1410
ted	-1411
pite	-1412
▁deep	-1413
▁refuge	-1414
▁contrib	-1415
ix	-1416
▁vot	-1417
wh	-1418
reed	-1419
▁trad	-1420
idence	-1421
▁death	-1422
▁event	-1423
▁create	-1424
▁within	-1425
▁inflation	-1426
▁best	-1427
quality	-1428
▁almost	-1429
▁Rep	-1430
▁requi	-1431
illions	-1432
▁fe	-1433
▁caus	-1434
▁implement	-1435
ling	-1436
▁199	-1437
▁get	-1438
▁across	-1439
▁integ	-1440
▁Ukraine	-1441
DG	-1442
cies	-1443
▁init	-1444
▁African	-1445
▁question	-1446
verage	-1447
▁Middle	-1448
▁growing	-1449
▁Asia	-1450
▁free	-1451
hes	-1452
ield	-1453
▁farm	-1454
▁school	-1455
▁official	-1456
▁coll	-1457
▁concern	-1458
rency	-1459
ock	-1460
urd	-1461
rams	-1462
▁hold	-1463
▁broad	-1464
eration	-1465
▁spending	-1466
ession	-1467
▁commit	-1468
▁strateg	-1469
▁day	-1470
ister	-1471
▁Chinese	-1472
▁Development	-1473
cent	-1474
▁mass	-1475
erence	-1476
▁value	-1477
▁happ	-1478
▁slow	-1479
▁price	-1480
▁comple	-1481
▁respons	-1482
oun	-1483
atives	-1484
ins	-1485
▁civ	-1486
▁enc	-1487
▁ter	-1488
▁open	-1489
▁nuclear	-1490
▁monetary	-1491
▁agreement	-1492
▁reforms	-1493
▁standard	-1494
reng	-1495
▁War	-1496
▁risks	-1497
▁others	-1498
▁6	-1499
omet	-1500
▁sustainable	-1501
aim	-1502
▁vi	-1503
▁community	-1504
care	-1505
reak	-1506
▁run	-1507
▁struct	-1508
▁further	-1509
ave	-1510
vious	-1511
oura	-1512
▁tru	-1513
lam	-1514
▁think	-1515
rodu	-1516
▁beg	-1517
▁While	-1518
▁streng	-1519
▁programs	-1520
▁gr	-1521
onal	-1522
▁want	-1523
▁simil	-1524
▁increasingly	-1525
▁International	-1526
ned	-1527
▁half	-1528
▁agricult	-1529
racy	-1530
▁certain	-1531
ratic	-1532
▁rights	-1533
▁terms	-1534
▁domestic	-1535
▁appe	-1536
▁program	-1537
▁manage	-1538
▁industr	-1539
yond	-1540
▁oper	-1541
▁place	-1542
▁direct	-1543
20	-1544
▁ago	-1545
▁saf	-1546
▁however	-1547
be	-1548
▁lives	-1549
▁she	-1550
▁opportunity	-1551
come	-1552
▁drug	-1553
▁civil	-1554
▁cities	-1555
▁post	-1556
▁action	-1557
▁individ	-1558
▁members	-1559
▁bal	-1560
▁admin	-1561
▁levels	-1562
▁longer	-1563
▁unem	-1564
oid	-1565
▁Syria	-1566
ope	-1567
▁dest	-1568
oming	-1569
udget	-1570
▁shif	-1571
ination	-1572
▁step	-1573
▁extrem	-1574
yn	-1575
▁UN	-1576
▁Kore	-1577
▁home	-1578
gether	-1579
▁together	-1580
▁dang	-1581
ggest	-1582
▁face	-1583
rate	-1584
▁net	-1585
▁par	-1586
▁camp	-1587
▁consequ	-1588
ront	-1589
▁ear	-1590
▁lack	-1591
▁media	-1592
▁suggest	-1593
5%	-1594
ends	-1595
▁each	-1596
▁defic	-1597
▁conflict	-1598
▁individual	-1599
ger	-1600
▁UK	-1601
▁occ	-1602
▁After	-1603
▁Ob	-1604
▁itself	-1605
▁Western	-1606
▁advanced	-1607
▁7	-1608
oti	-1609
▁corpor	-1610
ret	-1611
▁greater	-1612
▁recently	-1613
dom	-1614
wide	-1615
bon	-1616
ified	-1617
▁Econom	-1618
empt	-1619
ilities	-1620
▁challenge	-1621
tain	-1622
▁thus	-1623
▁administ	-1624
iod	-1625
man	-1626
▁disease	-1627
▁fl	-1628
▁cho	-1629
▁innovation	-1630
lf	-1631
ceed	-1632
ened	-1633
epend	-1634
▁Cent	-1635
▁working	-1636
▁never	-1637
▁budget	-1638
▁information	-1639
▁top	-1640
▁Con	-1641
▁pred	-1642
▁possible	-1643
▁mig	-1644
▁pract	-1645
▁decade	-1646
▁achieve	-1647
ource	-1648
▁decl	-1649
selves	-1650
ression	-1651
▁Nations	-1652
,000	-1653
ither	-1654
▁fuel	-1655
▁seems	-1656
▁policymakers	-1657
ama	-1658
▁cle	-1659
▁production	-1660
ides	-1661
▁Tur	-1662
▁doll	-1663
▁fight	-1664
▁rapid	-1665
▁rising	-1666
▁boost	-1667
▁common	-1668
▁Or	-1669
▁sk	-1670
▁Par	-1671
▁hand	-1672
▁environmental	-1673
RI	-1674
ived	-1675
just	-1676
▁mult	-1677
▁viol	-1678
▁exist	-1679
▁developed	-1680
omp	-1681
▁Pol	-1682
▁full	-1683
▁fall	-1684
▁claim	-1685
▁Global	-1686
▁similar	-1687
pris	-1688
ected	-1689
▁wealth	-1690
aster	-1691
▁left	-1692
iversity	-1693
▁election	-1694
▁relations	-1695
iqu	-1696
▁che	-1697
▁dev	-1698
istic	-1699
▁able	-1700
▁urban	-1701
▁necess	-1702
▁negoti	-1703
▁simply	-1704
▁encoura	-1705
▁investors	-1706
put	-1707
▁making	-1708
▁communities	-1709
ls	-1710
ortun	-1711
▁force	-1712
istance	-1713
▁serious	-1714
▁productivity	-1715
▁2015	-1716
▁mean	-1717
▁peace	-1718
▁measures	-1719
ourn	-1720
▁tal	-1721
▁North	-1722
▁initi	-1723
▁entire	-1724
▁reflect	-1725
▁increased	-1726
ec	-1727
ways	-1728
▁Acc	-1729
▁Res	-1730
▁comb	-1731
▁sure	-1732
▁bring	-1733
▁early	-1734
▁promot	-1735
▁la	-1736
▁Even	-1737
▁keep	-1738
▁Islam	-1739
▁reach	-1740
the	-1741
▁Le	-1742
▁Yet	-1743
▁avoid	-1744
▁unemployment	-1745
change	-1746
▁effects	-1747
▁inequality	-1748
▁ever	-1749
▁five	-1750
ctions	-1751
▁ty	-1752
▁aim	-1753
▁ess	-1754
▁spe	-1755
▁loss	-1756
▁century	-1757
arent	-1758
▁led	-1759
▁unt	-1760
ournal	-1761
aged	-1762
▁four	-1763
▁influ	-1764
▁rules	-1765
atory	-1766
▁Inst	-1767
▁society	-1768
▁decision	-1769
rime	-1770
▁times	-1771
▁danger	-1772
▁else	-1773
▁ways	-1774
▁house	-1775
fact	-1776
then	-1777
▁aid	-1778
ising	-1779
▁coop	-1780
▁rece	-1781
▁sing	-1782
▁partners	-1783
▁What	-1784
▁purs	-1785
▁close	-1786
issions	-1787
▁Republic	-1788
▁relative	-1789
▁Pro	-1790
▁gra	-1791
▁transp	-1792
ah	-1793
0.	-1794
▁unc	-1795
ys	-1796
▁King	-1797
▁live	-1798
▁Obama	-1799
▁recover	-1800
▁Cl	-1801
aign	-1802
irst	-1803
▁dou	-1804
▁bond	-1805
▁estim	-1806
▁nearly	-1807
ium	-1808
cial	-1809
▁mob	-1810
▁2008	-1811
▁lear	-1812
▁finance	-1813
▁maintain	-1814
▁firms	-1815
▁ident	-1816
▁issues	-1817
▁average	-1818
▁banking	-1819
ortunately	-1820
▁interests	-1821
▁san	-1822
ctors	-1823
▁Part	-1824
▁adop	-1825
▁effort	-1826
aring	-1827
▁alone	-1828
ror	-1829
▁somet	-1830
▁conditions	-1831
aken	-1832
▁bor	-1833
▁done	-1834
▁strengthen	-1835
aving	-1836
▁France	-1837
▁consequences	-1838
like	-1839
▁emb	-1840
▁amount	-1841
▁contra	-1842
▁former	-1843
izations	-1844
▁created	-1845
▁campaign	-1846
▁themselves	-1847
▁opportunities	-1848
▁cy	-1849
▁ge	-1850
▁dam	-1851
erve	-1852
▁cult	-1853
lation	-1854
mental	-1855
▁history	-1856
▁regional	-1857
▁don	-1858
▁tre	-1859
▁stat	-1860
▁member	-1861
haps	-1862
▁8	-1863
▁Min	-1864
▁essential	-1865
enda	-1866
onse	-1867
▁deb	-1868
▁regime	-1869
ledge	-1870
▁true	-1871
▁massive	-1872
▁bl	-1873
▁All	-1874
▁opt	-1875
though	-1876
▁solutions	-1877
side	-1878
▁employment	-1879
ler	-1880
oday	-1881
ently	-1882
ensive	-1883
▁begin	-1884
▁cases	-1885
▁strategy	-1886
by	-1887
lin	-1888
▁Of	-1889
▁sl	-1890
▁Today	-1891
▁modern	-1892
ised	-1893
acity	-1894
▁Some	-1895
▁expand	-1896
▁establish	-1897
arr	-1898
gypt	-1899
ulner	-1900
▁Korea	-1901
▁investments	-1902
key	-1903
ills	-1904
wise	-1905
arian	-1906
▁dig	-1907
ended	-1908
▁beyond	-1909
▁living	-1910
▁single	-1911
▁transform	-1912
▁administration	-1913
uster	-1914
▁always	-1915
▁benefit	-1916
▁leading	-1917
▁natural	-1918
ush	-1919
▁tot	-1920
▁journal	-1921
▁particip	-1922
▁projects	-1923
▁emissions	-1924
▁Sp	-1925
▁gen	-1926
▁mal	-1927
istan	-1928
▁based	-1929
▁changes	-1930
▁ten	-1931
based	-1932
rated	-1933
▁design	-1934
▁Kingdom	-1935
▁currency	-1936
▁technologies	-1937
hood	-1938
▁blo	-1939
▁Egypt	-1940
▁Turkey	-1941
▁anti	-1942
▁sense	-1943
▁sovere	-1944
▁According	-1945
ify	-1946
eria	-1947
ufact	-1948
veral	-1949
▁fear	-1950
▁accept	-1951
▁assets	-1952
▁once	-1953
▁diseases	-1954
▁response	-1955
▁worldwide	-1956
az	-1957
▁lib	-1958
▁tool	-1959
▁assum	-1960
▁avail	-1961
▁issue	-1962
▁leadership	-1963
lim	-1964
▁ru	-1965
reen	-1966
aging	-1967
▁supply	-1968
▁hope	-1969
▁regard	-1970
▁despite	-1971
▁democracy	-1972
▁period	-1973
▁politics	-1974
▁stability	-1975
to	-1976
rael	-1977
▁subst	-1978
▁funding	-1979
▁largest	-1980
▁him	-1981
▁old	-1982
ories	-1983
▁Fund	-1984
▁deal	-1985
▁fram	-1986
ustain	-1987
▁Britain	-1988
▁Internet	-1989
▁refugees	-1990
▁requires	-1991
rupt	-1992
▁ill	-1993
▁called	-1994
▁vulner	-1995
▁independ	-1996
▁organizations	-1997
mber	-1998
▁dra	-1999
▁ren	-2000
▁proper	-2001
▁millions	-2002
ean	-2003
acks	-2004
▁norm	-2005
▁goods	-2006
▁prosper	-2007
▁products	-2008
ee	-2009
▁2016	-2010
▁flow	-2011
▁oppos	-2012
▁total	-2013
▁annual	-2014
▁manufact	-2015
lt	-2016
ival	-2017
▁capacity	-2018
▁bad	-2019
▁idea	-2020
▁Israel	-2021
▁British	-2022
▁extreme	-2023
OR	-2024
▁abs	-2025
▁repres	-2026
▁vir	-2027
▁taxes	-2028
cul	-2029
▁Many	-2030
iveness	-2031
▁Health	-2032
▁groups	-2033
▁reven	-2034
▁agenda	-2035
▁farmers	-2036
▁Sa	-2037
▁sit	-2038
incip	-2039
oviet	-2040
▁away	-2041
▁head	-2042
▁invol	-2043
▁union	-2044
▁German	-2045
▁balance	-2046
med	-2047
king	-2048
ats	-2049
▁Commission	-2050
▁amb	-2051
▁legal	-2052
ai	-2053
iance	-2054
▁look	-2055
▁cover	-2056
▁infect	-2057
oring	-2058
▁cause	-2059
▁trend	-2060
▁collect	-2061
▁standards	-2062
▁experience	-2063
oh	-2064
ug	-2065
att	-2066
par	-2067
▁Ag	-2068
▁Go	-2069
▁stru	-2070
▁perform	-2071
▁protection	-2072
▁consumption	-2073
ively	-2074
▁lost	-2075
▁prec	-2076
▁third	-2077
ien	-2078
▁expl	-2079
▁prim	-2080
▁prior	-2081
▁trillion	-2082
uing	-2083
ender	-2084
ented	-2085
▁clos	-2086
income	-2087
▁having	-2088
▁Central	-2089
▁9	-2090
utr	-2091
▁goal	-2092
▁path	-2093
▁test	-2094
▁funds	-2095
▁several	-2096
lying	-2097
▁Such	-2098
▁quick	-2099
▁super	-2100
▁using	-2101
▁princip	-2102
▁Sec	-2103
▁funda	-2104
▁histor	-2105
▁ability	-2106
▁successful	-2107
▁jo	-2108
iting	-2109
▁bord	-2110
▁Given	-2111
▁owing	-2112
usterity	-2113
▁household	-2114
oci	-2115
▁Sh	-2116
down	-2117
ming	-2118
▁Mon	-2119
ustainable	-2120
isions	-2121
▁self	-2122
▁spread	-2123
▁attention	-2124
dd	-2125
▁shift	-2126
▁framew	-2127
▁continent	-2128
sw	-2129
ighb	-2130
▁deliver	-2131
utional	-2132
▁believe	-2133
▁quality	-2134
▁financing	-2135
rade	-2136
▁occur	-2137
▁until	-2138
▁critical	-2139
reg	-2140
▁gas	-2141
▁gir	-2142
▁2013	-2143
▁netw	-2144
▁class	-2145
▁behind	-2146
▁Minister	-2147
ched	-2148
opol	-2149
▁var	-2150
▁crit	-2151
▁soon	-2152
▁vict	-2153
▁inclus	-2154
▁position	-2155
ym	-2156
pped	-2157
ured	-2158
ients	-2159
▁break	-2160
▁expected	-2161
rel	-2162
▁tem	-2163
ateral	-2164
▁increasing	-2165
▁NE	-2166
ring	-2167
▁coal	-2168
uation	-2169
▁sav	-2170
▁rule	-2171
▁Paris	-2172
vest	-2173
▁sum	-2174
▁later	-2175
▁afford	-2176
▁deaths	-2177
sid	-2178
force	-2179
▁activ	-2180
▁Soviet	-2181
▁incent	-2182
▁treatment	-2183
▁economists	-2184
▁structural	-2185
▁makes	-2186
▁altern	-2187
▁months	-2188
▁reality	-2189
▁necessary	-2190
▁particular	-2191
DGs	-2192
▁fra	-2193
onald	-2194
▁burd	-2195
▁worse	-2196
▁neighb	-2197
▁largely	-2198
oral	-2199
▁basic	-2200
▁middle	-2201
▁taking	-2202
▁respect	-2203
▁exchange	-2204
▁authorities	-2205
ored	-2206
▁taken	-2207
▁Ar	-2208
▁EC	-2209
aced	-2210
▁NEW	-2211
▁mom	-2212
right	-2213
▁demon	-2214
udi	-2215
▁bar	-2216
alled	-2217
▁solution	-2218
▁digital	-2219
▁discuss	-2220
▁evidence	-2221
▁knowledge	-2222
zer	-2223
ously	-2224
ortion	-2225
▁behav	-2226
▁rural	-2227
▁include	-2228
▁predict	-2229
▁pressure	-2230
osp	-2231
pro	-2232
▁men	-2233
▁word	-2234
ruction	-2235
▁Americans	-2236
▁governance	-2237
ief	-2238
while	-2239
▁kind	-2240
▁said	-2241
market	-2242
ception	-2243
▁commitment	-2244
▁management	-2245
▁depend	-2246
▁univers	-2247
▁reducing	-2248
▁cooperation	-2249
sec	-2250
aria	-2251
itted	-2252
rench	-2253
▁2014	-2254
▁Cons	-2255
▁read	-2256
▁wide	-2257
▁object	-2258
▁things	-2259
emic	-2260
▁determ	-2261
▁ground	-2262
▁terror	-2263
▁powerful	-2264
iot	-2265
▁cru	-2266
arily	-2267
▁repl	-2268
▁above	-2269
▁underm	-2270
▁demonst	-2271
▁available	-2272
ipl	-2273
▁198	-2274
▁kill	-2275
▁girls	-2276
▁scient	-2277
▁targets	-2278
cl	-2279
▁Now	-2280
▁huge	-2281
▁rele	-2282
▁adjust	-2283
▁affect	-2284
▁recovery	-2285
ape	-2286
equ	-2287
ici	-2288
▁Like	-2289
icians	-2290
▁began	-2291
▁advant	-2292
▁borrow	-2293
▁forces	-2294
▁moment	-2295
lies	-2296
▁actually	-2297
rex	-2298
▁HI	-2299
aper	-2300
imul	-2301
▁Mus	-2302
▁counter	-2303
▁austerity	-2304
agn	-2305
bol	-2306
mit	-2307
oing	-2308
▁ECB	-2309
▁comes	-2310
▁larger	-2311
▁unlike	-2312
▁introdu	-2313
▁respond	-2314
▁majority	-2315
gent	-2316
ones	-2317
ream	-2318
▁mis	-2319
▁vis	-2320
ruption	-2321
▁officials	-2322
▁integration	-2323
ember	-2324
▁conn	-2325
▁highly	-2326
▁strugg	-2327
▁creating	-2328
IN	-2329
gest	-2330
▁agg	-2331
▁gains	-2332
▁limited	-2333
arant	-2334
▁whose	-2335
ltimate	-2336
ilateral	-2337
▁currently	-2338
▁How	-2339
▁air	-2340
▁prep	-2341
▁stimul	-2342
▁elsewhere	-2343
▁uncertain	-2344
1,	-2345
set	-2346
chan	-2347
▁typ	-2348
ossil	-2349
thing	-2350
▁certainly	-2351
icy	-2352
▁rein	-2353
▁attract	-2354
▁failure	-2355
▁parties	-2356
▁regulation	-2357
▁agricultural	-2358
aid	-2359
rad	-2360
hest	-2361
orks	-2362
ology	-2363
▁poll	-2364
▁study	-2365
▁Islamic	-2366
▁attempt	-2367
▁perhaps	-2368
30	-2369
ung	-2370
hers	-2371
▁det	-2372
▁laun	-2373
▁indic	-2374
▁offer	-2375
▁coming	-2376
▁record	-2377
▁decline	-2378
ification	-2379
▁Italy	-2380
▁expert	-2381
▁corporate	-2382
▁prosperity	-2383
reedom	-2384
▁renew	-2385
▁substant	-2386
▁industrial	-2387
edi	-2388
emoc	-2389
▁2012	-2390
▁Greek	-2391
▁failed	-2392
▁complex	-2393
▁Economic	-2394
▁existing	-2395
▁vulnerable	-2396
ane	-2397
▁1.	-2398
▁gap	-2399
▁give	-2400
ancing	-2401
▁associ	-2402
▁technological	-2403
TO	-2404
▁Sim	-2405
▁rat	-2406
▁argu	-2407
▁easy	-2408
rought	-2409
▁State	-2410
▁analy	-2411
▁Muslim	-2412
▁carbon	-2413
▁values	-2414
▁medical	-2415
▁popular	-2416
▁surpris	-2417
▁National	-2418
▁behavior	-2419
▁sanctions	-2420
▁globalization	-2421
ters	-2422
▁unp	-2423
▁tools	-2424
▁propos	-2425
▁guarant	-2426
1.	-2427
50	-2428
cil	-2429
apse	-2430
▁exc	-2431
rexit	-2432
▁dram	-2433
▁prob	-2434
encies	-2435
itable	-2436
▁Saudi	-2437
▁quickly	-2438
gn	-2439
ene	-2440
anda	-2441
▁HIV	-2442
orest	-2443
ieties	-2444
▁employ	-2445
▁subsid	-2446
fortunately	-2447
▁relationship	-2448
cer	-2449
▁TB	-2450
▁age	-2451
▁art	-2452
▁fossil	-2453
▁willing	-2454
▁vaccines	-2455
uted	-2456
▁lat	-2457
▁wee	-2458
▁line	-2459
▁doing	-2460
▁models	-2461
▁businesses	-2462
CD	-2463
lex	-2464
loc	-2465
▁fav	-2466
▁ste	-2467
▁seen	-2468
econom	-2469
▁First	-2470
▁export	-2471
utrition	-2472
▁strategic	-2473
AM	-2474
▁18	-2475
head	-2476
▁Bar	-2477
ature	-2478
▁answ	-2479
▁near	-2480
▁perm	-2481
▁rich	-2482
▁along	-2483
▁influence	-2484
orn	-2485
▁Great	-2486
▁Donald	-2487
▁damage	-2488
▁debate	-2489
▁skills	-2490
▁becoming	-2491
▁Nig	-2492
▁cat	-2493
light	-2494
inated	-2495
urance	-2496
▁below	-2497
▁produce	-2498
▁following	-2499
inal	-2500
ired	-2501
▁weap	-2502
▁green	-2503
▁recognize	-2504
ORK	-2505
raz	-2506
ains	-2507
▁suc	-2508
▁YORK	-2509
▁city	-2510
▁pass	-2511
▁Govern	-2512
▁either	-2513
▁source	-2514
▁succeed	-2515
▁collapse	-2516
▁democratic	-2517
▁established	-2518
▁Ab	-2519
▁raise	-2520
▁worth	-2521
▁elimin	-2522
▁recession	-2523
pr	-2524
use	-2525
ogra	-2526
owers	-2527
▁Cong	-2528
▁goals	-2529
▁scale	-2530
▁output	-2531
▁previous	-2532
▁framework	-2533
▁sovereign	-2534
▁additional	-2535
▁manufacturing	-2536
rep	-2537
▁bonds	-2538
▁excess	-2539
▁revolution	-2540
bo	-2541
ubl	-2542
▁emp	-2543
▁rad	-2544
▁vol	-2545
arter	-2546
▁host	-2547
▁dollar	-2548
▁exports	-2549
▁liberal	-2550
▁sectors	-2551
aff	-2552
icro	-2553
▁purch	-2554
▁helped	-2555
ological	-2556
▁company	-2557
▁proposed	-2558
▁fundamental	-2559
omb	-2560
ault	-2561
▁Organ	-2562
▁Prime	-2563
▁Since	-2564
▁known	-2565
itarian	-2566
▁center	-2567
▁everyone	-2568
▁dangerous	-2569
▁providing	-2570
▁Pe	-2571
▁hy	-2572
▁obs	-2573
▁party	-2574
▁stock	-2575
▁announ	-2576
▁gender	-2577
▁economics	-2578
crib	-2579
pping	-2580
▁Mean	-2581
▁parts	-2582
▁Instead	-2583
▁meeting	-2584
▁strategies	-2585
ator	-2586
zero	-2587
▁deg	-2588
▁became	-2589
▁severe	-2590
▁biggest	-2591
▁results	-2592
rict	-2593
▁uns	-2594
celer	-2595
rants	-2596
▁forced	-2597
▁ensuring	-2598
ya	-2599
els	-2600
▁Ex	-2601
ises	-2602
▁Ken	-2603
▁let	-2604
osing	-2605
▁disp	-2606
▁miss	-2607
remlin	-2608
▁caused	-2609
▁crises	-2610
▁voters	-2611
▁contrast	-2612
▁violence	-2613
▁according	-2614
▁efficient	-2615
▁agriculture	-2616
arc	-2617
▁Be	-2618
▁mort	-2619
▁French	-2620
▁immedi	-2621
▁Meanwhile	-2622
▁industries	-2623
ann	-2624
ech	-2625
▁Can	-2626
▁May	-2627
▁ign	-2628
ustom	-2629
▁Democ	-2630
▁mechan	-2631
▁performance	-2632
▁arr	-2633
▁took	-2634
ograph	-2635
▁advoc	-2636
▁traditional	-2637
▁Organization	-2638
▁char	-2639
▁publ	-2640
▁surv	-2641
▁drugs	-2642
▁famil	-2643
▁family	-2644
▁Kremlin	-2645
▁vaccine	-2646
ventional	-2647
▁populations	-2648
oph	-2649
raq	-2650
ancial	-2651
▁explo	-2652
ina	-2653
oint	-2654
▁soft	-2655
▁wast	-2656
▁regions	-2657
▁migration	-2658
▁Unfortunately	-2659
iplom	-2660
▁Iraq	-2661
▁rough	-2662
▁Climate	-2663
▁deficit	-2664
▁factors	-2665
▁transport	-2666
hem	-2667
▁En	-2668
▁ve	-2669
▁Dep	-2670
▁mind	-2671
▁plat	-2672
▁stop	-2673
sector	-2674
▁leave	-2675
▁prospect	-2676
▁tend	-2677
▁immun	-2678
▁legis	-2679
▁burden	-2680
▁matter	-2681
▁shared	-2682
▁constit	-2683
▁advantage	-2684
▁consumers	-2685
▁improving	-2686
▁something	-2687
ody	-2688
aces	-2689
ibiot	-2690
verse	-2691
called	-2692
▁asset	-2693
▁flows	-2694
▁obvious	-2695
▁primary	-2696
▁beginning	-2697
ked	-2698
lia	-2699
val	-2700
▁ir	-2701
rong	-2702
▁enter	-2703
▁words	-2704
▁powers	-2705
▁Monetary	-2706
▁effectively	-2707
arp	-2708
cle	-2709
urs	-2710
▁IM	-2711
▁Des	-2712
aterial	-2713
▁building	-2714
▁ultimate	-2715
▁individuals	-2716
ets	-2717
▁six	-2718
▁crucial	-2719
▁freedom	-2720
▁protest	-2721
▁reduced	-2722
▁probably	-2723
▁estimated	-2724
▁represent	-2725
▁profession	-2726
▁regulatory	-2727
▁transition	-2728
▁competition	-2729
▁journalists	-2730
▁negotiations	-2731
▁presidential	-2732
-1	-2733
DON	-2734
leg	-2735
now	-2736
ided	-2737
▁LON	-2738
▁div	-2739
▁heav	-2740
ishing	-2741
▁medic	-2742
▁LONDON	-2743
▁platform	-2744
▁decisions	-2745
▁encourage	-2746
▁significantly	-2747
sh	-2748
year	-2749
▁book	-2750
▁link	-2751
ternal	-2752
▁geopol	-2753
▁societies	-2754
▁politicians	-2755
▁institutional	-2756
ID	-2757
fer	-2758
ico	-2759
lig	-2760
▁Mer	-2761
▁mist	-2762
▁story	-2763
iciency	-2764
▁diplom	-2765
atically	-2766
▁Federal	-2767
▁creation	-2768
▁resistance	-2769
ilt	-2770
▁di	-2771
hens	-2772
razil	-2773
▁immig	-2774
▁shows	-2775
▁status	-2776
▁acceler	-2777
▁defense	-2778
▁outcome	-2779
▁Europeans	-2780
lier	-2781
▁197	-2782
▁cir	-2783
iment	-2784
▁side	-2785
▁Party	-2786
▁gradu	-2787
▁Brexit	-2788
▁leader	-2789
▁Finally	-2790
▁sources	-2791
▁students	-2792
▁partnership	-2793
-2	-2794
-20	-2795
ext	-2796
▁Ge	-2797
▁NA	-2798
▁ec	-2799
ries	-2800
▁Pak	-2801
▁tar	-2802
▁2017	-2803
▁Most	-2804
▁meth	-2805
▁divid	-2806
▁fully	-2807
▁ideas	-2808
▁trust	-2809
▁indeed	-2810
▁online	-2811
▁distrib	-2812
▁nothing	-2813
▁15	-2814
▁II	-2815
cont	-2816
iter	-2817
▁Mex	-2818
▁front	-2819
▁sharp	-2820
▁general	-2821
▁roughly	-2822
▁material	-2823
▁incentives	-2824
▁IMF	-2825
▁nor	-2826
▁safe	-2827
▁stronger	-2828
▁eventually	-2829
▁Sustainable	-2830
▁responsibility	-2831
▁Ke	-2832
abil	-2833
▁win	-2834
▁fair	-2835
▁hous	-2836
▁twent	-2837
▁engine	-2838
▁really	-2839
▁Although	-2840
▁antibiot	-2841
▁positive	-2842
▁reduction	-2843
%.	-2844
kel	-2845
sis	-2846
▁ce	-2847
ands	-2848
▁flo	-2849
acter	-2850
▁Coun	-2851
▁fast	-2852
▁outc	-2853
▁relig	-2854
▁agreed	-2855
▁attack	-2856
▁causes	-2857
▁facing	-2858
▁science	-2859
abilities	-2860
▁Pakistan	-2861
▁continues	-2862
▁increases	-2863
▁alternative	-2864
▁initiatives	-2865
rain	-2866
▁held	-2867
ension	-2868
▁clean	-2869
▁spent	-2870
▁wages	-2871
▁Arabia	-2872
▁custom	-2873
▁person	-2874
▁Nigeria	-2875
▁forward	-2876
▁deficits	-2877
▁practices	-2878
▁importance	-2879
▁Ro	-2880
adic	-2881
phas	-2882
▁fig	-2883
▁gold	-2884
▁zero	-2885
▁Other	-2886
▁displ	-2887
▁Though	-2888
▁Council	-2889
▁special	-2890
▁patients	-2891
▁planning	-2892
▁situation	-2893
mb	-2894
▁den	-2895
ached	-2896
▁assess	-2897
▁enable	-2898
▁engage	-2899
▁imposs	-2900
▁reasons	-2901
▁service	-2902
▁weapons	-2903
pol	-2904
rid	-2905
ustr	-2906
▁rob	-2907
aches	-2908
▁earn	-2909
ansion	-2910
▁Spain	-2911
▁adequ	-2912
▁argue	-2913
▁embra	-2914
▁yield	-2915
unction	-2916
▁concerns	-2917
▁opposition	-2918
▁understanding	-2919
ays	-2920
rary	-2921
▁203	-2922
▁mot	-2923
ondon	-2924
iation	-2925
undred	-2926
▁limit	-2927
▁surve	-2928
liament	-2929
▁answer	-2930
▁simple	-2931
▁matters	-2932
▁required	-2933
▁came	-2934
▁road	-2935
▁events	-2936
▁contain	-2937
▁electric	-2938
▁external	-2939
▁training	-2940
▁generation	-2941
ott	-2942
▁bi	-2943
vant	-2944
▁frag	-2945
▁colle	-2946
▁field	-2947
ptember	-2948
related	-2949
▁London	-2950
▁Merkel	-2951
▁chance	-2952
▁losses	-2953
▁points	-2954
▁dollars	-2955
▁households	-2956
▁relatively	-2957
het	-2958
unt	-2959
▁har	-2960
▁mac	-2961
going	-2962
▁Over	-2963
▁repe	-2964
▁writ	-2965
▁Trade	-2966
▁condu	-2967
▁optim	-2968
▁refugee	-2969
▁competit	-2970
▁September	-2971
▁aw	-2972
▁York	-2973
▁emphas	-2974
▁Despite	-2975
▁outside	-2976
▁networks	-2977
▁unlikely	-2978
▁plans	-2979
▁resol	-2980
▁steps	-2981
▁easily	-2982
▁faster	-2983
▁implic	-2984
▁promote	-2985
▁outcomes	-2986
▁suggests	-2987
▁impossible	-2988
9,	-2989
co	-2990
ots	-2991
uth	-2992
▁No	-2993
cast	-2994
▁sym	-2995
▁crop	-2996
health	-2997
ressed	-2998
▁barri	-2999
▁sound	-3000
▁tariff	-3001
▁hundred	-3002
▁precise	-3003
▁thereby	-3004
▁designed	-3005
▁Financial	-3006
▁continued	-3007
▁intervention	-3008
lant	-3009
▁jud	-3010
inary	-3011
lling	-3012
▁1990	-3013
eneral	-3014
▁ahead	-3015
▁legit	-3016
century	-3017
▁cancer	-3018
▁communic	-3019
▁provides	-3020
▁expansion	-3021
▁insurance	-3022
▁questions	-3023
▁University	-3024
lad	-3025
lled	-3026
▁Med	-3027
▁dyn	-3028
ables	-3029
▁Just	-3030
▁Last	-3031
▁late	-3032
▁save	-3033
▁Goals	-3034
▁doubt	-3035
▁malaria	-3036
▁Congress	-3037
▁agencies	-3038
mp	-3039
erves	-3040
▁feel	-3041
▁laws	-3042
▁marg	-3043
rehens	-3044
▁Simil	-3045
▁Brazil	-3046
economic	-3047
▁experien	-3048
▁negative	-3049
▁revenues	-3050
▁geopolitical	-3051
%,	-3052
li	-3053
car	-3054
▁sw	-3055
ique	-3056
ites	-3057
▁autom	-3058
▁enorm	-3059
▁favor	-3060
▁heart	-3061
▁wrong	-3062
▁Syrian	-3063
▁facilit	-3064
▁savings	-3065
▁Likewise	-3066
▁provided	-3067
▁competitive	-3068
ER	-3069
IDS	-3070
▁Sw	-3071
oses	-3072
plus	-3073
▁Sub	-3074
▁shown	-3075
▁stagn	-3076
▁takes	-3077
ulation	-3078
▁poorest	-3079
▁contract	-3080
▁personal	-3081
▁thinking	-3082
rec	-3083
▁Ad	-3084
rely	-3085
▁Not	-3086
▁fed	-3087
▁tas	-3088
▁wat	-3089
0,000	-3090
▁SDGs	-3091
▁size	-3092
making	-3093
▁eradic	-3094
▁rapidly	-3095
▁12	-3096
bola	-3097
requ	-3098
▁cal	-3099
▁eth	-3100
ether	-3101
lands	-3102
▁exec	-3103
▁vast	-3104
▁emerg	-3105
▁pharm	-3106
▁quant	-3107
▁argued	-3108
▁allowed	-3109
▁connect	-3110
▁overall	-3111
▁families	-3112
▁movement	-3113
▁produced	-3114
▁confidence	-3115
▁politically	-3116
AN	-3117
off	-3118
cale	-3119
itig	-3120
vert	-3121
▁cuts	-3122
▁feed	-3123
▁thing	-3124
▁borders	-3125
▁measure	-3126
▁complete	-3127
▁activities	-3128
▁associated	-3129
af	-3130
ahar	-3131
▁Joh	-3132
▁Mal	-3133
▁buy	-3134
▁era	-3135
▁mid	-3136
break	-3137
▁Vlad	-3138
▁days	-3139
▁push	-3140
▁planet	-3141
▁describ	-3142
▁helping	-3143
▁achieved	-3144
▁Bo	-3145
hern	-3146
ibly	-3147
itud	-3148
▁sal	-3149
▁mess	-3150
▁Ebola	-3151
▁drive	-3152
▁extra	-3153
itation	-3154
▁territ	-3155
▁attacks	-3156
▁constra	-3157
▁improved	-3158
▁stimulus	-3159
ees	-3160
▁enh	-3161
scale	-3162
uting	-3163
▁adap	-3164
▁area	-3165
▁sett	-3166
cember	-3167
▁basis	-3168
▁Second	-3169
▁choice	-3170
▁secure	-3171
▁vision	-3172
▁property	-3173
of	-3174
irth	-3175
▁Ass	-3176
vision	-3177
▁cross	-3178
▁deter	-3179
▁going	-3180
▁macro	-3181
▁polio	-3182
▁Reserve	-3183
▁conduct	-3184
▁housing	-3185
▁incomes	-3186
▁victory	-3187
ety	-3188
oks	-3189
vis	-3190
imir	-3191
oman	-3192
utes	-3193
▁Eng	-3194
▁conv	-3195
▁mark	-3196
istent	-3197
▁Asian	-3198
▁aimed	-3199
orthern	-3200
▁accounts	-3201
▁specific	-3202
▁sufficient	-3203
▁100	-3204
▁Lib	-3205
▁unf	-3206
andid	-3207
rimin	-3208
▁John	-3209
▁phys	-3210
▁sent	-3211
▁virt	-3212
▁adopt	-3213
▁range	-3214
▁thous	-3215
▁Mexico	-3216
▁commer	-3217
▁widely	-3218
▁meaning	-3219
▁thought	-3220
▁December	-3221
▁Vladimir	-3222
▁directly	-3223
▁inclusive	-3224
▁corruption	-3225
BRI	-3226
raw	-3227
cers	-3228
fuel	-3229
iagn	-3230
ensus	-3231
▁pain	-3232
▁dynam	-3233
▁vital	-3234
▁youth	-3235
ressive	-3236
▁focused	-3237
▁independent	-3238
iles	-3239
▁red	-3240
▁sex	-3241
▁moral	-3242
▁advance	-3243
▁conserv	-3244
▁surplus	-3245
▁elections	-3246
▁estimates	-3247
▁pollution	-3248
▁productive	-3249
▁regulations	-3250
une	-3251
▁fri	-3252
▁pus	-3253
Sahar	-3254
attle	-3255
house	-3256
▁paid	-3257
▁trou	-3258
aching	-3259
▁2015,	-3260
▁resil	-3261
Saharan	-3262
▁Another	-3263
▁broader	-3264
▁Russians	-3265
▁Ph	-3266
ynes	-3267
▁Per	-3268
aries	-3269
atures	-3270
▁cyber	-3271
▁serve	-3272
▁Barack	-3273
▁Invest	-3274
▁candid	-3275
▁reject	-3276
▁brought	-3277
▁subject	-3278
rehensive	-3279
▁collabor	-3280
▁coverage	-3281
▁starters	-3282
▁efficiency	-3283
▁responsible	-3284
EN	-3285
mon	-3286
▁30	-3287
▁My	-3288
ards	-3289
izes	-3290
▁196	-3291
iring	-3292
▁inev	-3293
▁domin	-3294
▁minim	-3295
▁worst	-3296
erences	-3297
ovember	-3298
▁mobile	-3299
▁speech	-3300
▁temper	-3301
▁promise	-3302
▁seeking	-3303
▁character	-3304
▁subsidies	-3305
▁everywhere	-3306
▁commitments	-3307
▁corporations	-3308
DGE	-3309
han	-3310
▁Tw	-3311
ethe	-3312
▁CAM	-3313
arity	-3314
ellig	-3315
illed	-3316
third	-3317
▁Geor	-3318
▁tele	-3319
BRIDGE	-3320
▁coord	-3321
ospital	-3322
▁critic	-3323
▁barriers	-3324
▁overcome	-3325
▁CAMBRIDGE	-3326
▁creditors	-3327
▁Republican	-3328
▁assistance	-3329
▁uncertainty	-3330
anu	-3331
▁Sc	-3332
nder	-3333
rene	-3334
aceut	-3335
▁Cold	-3336
▁week	-3337
action	-3338
▁diagn	-3339
▁Instit	-3340
▁pursue	-3341
▁clearly	-3342
aceutical	-3343
▁November	-3344
▁outbreak	-3345
▁sustainability	-3346
elt	-3347
ipher	-3348
▁reve	-3349
▁whom	-3350
lantic	-3351
onents	-3352
▁Keynes	-3353
▁reached	-3354
▁warming	-3355
▁generate	-3356
▁suffering	-3357
sp	-3358
ancy	-3359
▁won	-3360
ights	-3361
etheless	-3362
▁concent	-3363
▁committed	-3364
▁agreements	-3365
oy	-3366
isc	-3367
used	-3368
▁Har	-3369
▁From	-3370
istics	-3371
▁fuels	-3372
ensions	-3373
ference	-3374
reprene	-3375
▁conclud	-3376
▁pattern	-3377
▁Security	-3378
▁announced	-3379
▁contribute	-3380
▁Pl	-3381
rats	-3382
▁bub	-3383
▁NATO	-3384
▁core	-3385
▁imag	-3386
▁mitig	-3387
▁normal	-3388
fficient	-3389
▁healthy	-3390
▁managed	-3391
▁schools	-3392
▁threats	-3393
▁analysis	-3394
▁annually	-3395
▁enormous	-3396
▁authority	-3397
▁difference	-3398
▁independence	-3399
▁pharmaceutical	-3400
ney	-3401
enth	-3402
icip	-3403
ocks	-3404
part	-3405
▁Col	-3406
ronic	-3407
▁diver	-3408
▁separ	-3409
▁stable	-3410
▁receive	-3411
▁cultural	-3412
▁learning	-3413
▁peripher	-3414
▁Similarly	-3415
▁sometimes	-3416
▁entreprene	-3417
▁ultimately	-3418
ada	-3419
ios	-3420
pri	-3421
ton	-3422
ried	-3423
erate	-3424
▁dead	-3425
▁draw	-3426
▁insp	-3427
▁port	-3428
▁easing	-3429
▁equity	-3430
▁leaving	-3431
▁sustained	-3432
▁collective	-3433
▁antibiotics	-3434
AS	-3435
umb	-3436
▁Pr	-3437
▁Lat	-3438
iable	-3439
ought	-3440
▁Aust	-3441
▁harm	-3442
▁Leban	-3443
▁whole	-3444
▁option	-3445
▁partly	-3446
▁safety	-3447
▁suffer	-3448
▁federal	-3449
▁raising	-3450
▁apparent	-3451
▁forecast	-3452
▁initiative	-3453
▁supporting	-3454
▁competitiveness	-3455
ita	-3456
olid	-3457
▁Non	-3458
state	-3459
▁cash	-3460
▁list	-3461
▁orig	-3462
▁prem	-3463
▁vote	-3464
retary	-3465
▁aband	-3466
▁loans	-3467
▁worry	-3468
▁latest	-3469
▁method	-3470
▁places	-3471
ventions	-3472
▁includes	-3473
▁conference	-3474
▁regulators	-3475
▁electricity	-3476
.5	-3477
ych	-3478
▁Am	-3479
▁fem	-3480
▁isol	-3481
▁destro	-3482
▁becomes	-3483
▁instead	-3484
▁confront	-3485
▁contrary	-3486
▁intellig	-3487
▁producers	-3488
▁universal	-3489
▁substantial	-3490
▁comprehensive	-3491
look	-3492
unger	-3493
▁capt	-3494
▁epid	-3495
atever	-3496
▁chann	-3497
▁spend	-3498
holders	-3499
▁happen	-3500
▁trends	-3501
▁changed	-3502
▁disrupt	-3503
▁tariffs	-3504
▁adequate	-3505
▁changing	-3506
▁precisely	-3507
▁implemented	-3508
lif	-3509
iquid	-3510
▁wage	-3511
outher	-3512
▁carry	-3513
▁experts	-3514
▁achieving	-3515
▁legislation	-3516
5,	-3517
enn	-3518
augh	-3519
▁Our	-3520
▁Rev	-3521
▁lot	-3522
▁reb	-3523
cking	-3524
itious	-3525
outhern	-3526
▁actors	-3527
▁Eastern	-3528
▁priority	-3529
▁typically	-3530
▁addressing	-3531
uine	-3532
▁10%	-3533
▁hop	-3534
level	-3535
▁Only	-3536
▁Found	-3537
▁alloc	-3538
▁faces	-3539
▁allies	-3540
▁default	-3541
▁depends	-3542
▁highest	-3543
▁compared	-3544
▁launched	-3545
▁conventional	-3546
do	-3547
com	-3548
erb	-3549
erend	-3550
ulate	-3551
▁circ	-3552
▁game	-3553
▁appear	-3554
▁parent	-3555
▁Austral	-3556
▁hundreds	-3557
▁immediate	-3558
▁published	-3559
▁thousands	-3560
▁interventions	-3561
ING	-3562
ait	-3563
▁DC	-3564
aves	-3565
count	-3566
▁seek	-3567
▁tack	-3568
roduct	-3569
▁imper	-3570
▁theory	-3571
▁abandon	-3572
▁actions	-3573
▁lending	-3574
▁disaster	-3575
▁entirely	-3576
▁supposed	-3577
▁innovative	-3578
▁throughout	-3579
TON	-3580
eng	-3581
bank	-3582
ular	-3583
▁She	-3584
▁Why	-3585
which	-3586
▁2007	-3587
▁purp	-3588
▁truth	-3589
▁compar	-3590
▁seemed	-3591
▁explain	-3592
▁ongoing	-3593
▁profits	-3594
▁affected	-3595
▁hospital	-3596
▁direction	-3597
▁resulting	-3598
▁recognized	-3599
▁organization	-3600
la	-3601
sk	-3602
hel	-3603
uct	-3604
asion	-3605
▁acqu	-3606
▁boom	-3607
▁stem	-3608
▁team	-3609
▁sides	-3610
▁capita	-3611
▁donors	-3612
▁absence	-3613
▁mention	-3614
▁numbers	-3615
▁returns	-3616
▁started	-3617
▁migrants	-3618
▁economist	-3619
▁highlight	-3620
ika	-3621
▁Ju	-3622
rust	-3623
▁coup	-3624
▁scen	-3625
▁sens	-3626
▁equal	-3627
▁frequ	-3628
▁claims	-3629
▁adopted	-3630
▁quarter	-3631
▁appropri	-3632
▁referend	-3633
▁resource	-3634
▁exception	-3635
▁commercial	-3636
ECD	-3637
ario	-3638
time	-3639
▁Comp	-3640
acific	-3641
▁2013,	-3642
▁mother	-3643
▁nature	-3644
▁finally	-3645
▁radical	-3646
▁revenue	-3647
▁reserves	-3648
▁possibility	-3649
pay	-3650
▁16	-3651
ails	-3652
being	-3653
▁2014,	-3654
▁built	-3655
▁forms	-3656
itative	-3657
▁trying	-3658
▁unable	-3659
▁Consider	-3660
▁consumer	-3661
▁restrict	-3662
▁neighbors	-3663
▁supported	-3664
▁Foundation	-3665
▁approaches	-3666
urt	-3667
▁fo	-3668
ghan	-3669
▁194	-3670
arrow	-3671
reced	-3672
▁OECD	-3673
▁lies	-3674
▁wind	-3675
▁Still	-3676
▁depos	-3677
▁withd	-3678
▁comput	-3679
▁hardly	-3680
▁liquid	-3681
security	-3682
▁earlier	-3683
▁emerged	-3684
▁options	-3685
▁restore	-3686
▁argument	-3687
▁greatest	-3688
▁received	-3689
▁struggle	-3690
recedented	-3691
▁excessive	-3692
structuring	-3693
▁affordable	-3694
▁immigration	-3695
ili	-3696
rect	-3697
▁log	-3698
ffect	-3699
▁wars	-3700
▁Afghan	-3701
▁percent	-3702
▁present	-3703
▁activity	-3704
▁followed	-3705
▁prepared	-3706
▁ambitious	-3707
▁historical	-3708
▁Fortunately	-3709
sc	-3710
isms	-3711
▁fix	-3712
▁hit	-3713
▁pun	-3714
antly	-3715
▁mach	-3716
▁name	-3717
▁trig	-3718
▁your	-3719
▁adapt	-3720
▁monit	-3721
▁smart	-3722
▁closer	-3723
▁devast	-3724
▁moving	-3725
▁viewed	-3726
▁bankers	-3727
▁adjustment	-3728
▁operations	-3729
▁Governments	-3730
▁Republicans	-3731
▁construction	-3732
▁unprecedented	-3733
7%	-3734
orb	-3735
fect	-3736
▁Its	-3737
▁ban	-3738
▁bre	-3739
order	-3740
▁clin	-3741
▁lose	-3742
▁obst	-3743
▁eight	-3744
▁oblig	-3745
▁anyone	-3746
▁commod	-3747
▁limits	-3748
▁minist	-3749
▁summit	-3750
▁careful	-3751
▁religious	-3752
▁protecting	-3753
▁restructuring	-3754
ox	-3755
erc	-3756
hib	-3757
aled	-3758
edly	-3759
rant	-3760
▁Cam	-3761
ittee	-3762
▁hour	-3763
▁pled	-3764
carbon	-3765
▁Latin	-3766
▁learn	-3767
▁stake	-3768
▁talks	-3769
▁virus	-3770
▁expend	-3771
▁remark	-3772
▁minister	-3773
▁remained	-3774
▁nutrition	-3775
▁principles	-3776
▁dramatically	-3777
▁intelligence	-3778
▁multilateral	-3779
app	-3780
see	-3781
▁base	-3782
▁here	-3783
▁task	-3784
▁Trans	-3785
▁birth	-3786
▁meant	-3787
osystem	-3788
▁forest	-3789
▁hunger	-3790
▁expendit	-3791
4%	-3792
HO	-3793
inet	-3794
osis	-3795
▁BER	-3796
ivate	-3797
▁1980	-3798
ifying	-3799
illing	-3800
▁calls	-3801
▁compl	-3802
▁flood	-3803
▁People	-3804
▁exceed	-3805
▁female	-3806
▁revers	-3807
▁Lebanon	-3808
▁appears	-3809
▁replace	-3810
▁weather	-3811
▁reflects	-3812
▁introduced	-3813
▁scientists	-3814
ded	-3815
▁Co	-3816
onia	-3817
▁Bec	-3818
aling	-3819
▁Rather	-3820
▁border	-3821
▁circum	-3822
▁double	-3823
▁formal	-3824
▁perman	-3825
▁recomm	-3826
▁culture	-3827
▁internal	-3828
▁enterpris	-3829
▁promoting	-3830
Os	-3831
ote	-3832
▁CO	-3833
angu	-3834
▁mut	-3835
▁try	-3836
orpor	-3837
▁bott	-3838
govern	-3839
▁Crime	-3840
▁paper	-3841
▁ratio	-3842
country	-3843
▁Indian	-3844
▁belief	-3845
▁review	-3846
▁doctors	-3847
▁driving	-3848
▁withdraw	-3849
▁investing	-3850
▁principle	-3851
rs	-3852
airs	-3853
back	-3854
grow	-3855
uild	-3856
▁tur	-3857
▁Sing	-3858
▁anim	-3859
▁upon	-3860
▁2016,	-3861
▁final	-3862
▁prove	-3863
▁deeper	-3864
▁extent	-3865
▁travel	-3866
▁unique	-3867
▁Because	-3868
▁billions	-3869
▁consensus	-3870
▁expensive	-3871
▁infectious	-3872
.)	-3873
3%	-3874
mo	-3875
inf	-3876
▁CE	-3877
book	-3878
ison	-3879
▁Dav	-3880
owned	-3881
▁Prog	-3882
▁Then	-3883
▁firm	-3884
▁mand	-3885
▁tell	-3886
▁told	-3887
coming	-3888
▁2012,	-3889
▁mobil	-3890
▁Resear	-3891
▁easier	-3892
▁giving	-3893
▁narrow	-3894
▁owners	-3895
▁profit	-3896
▁turned	-3897
▁demands	-3898
▁referendum	-3899
▁experienced	-3900
▁strengthening	-3901
IS	-3902
ery	-3903
ipe	-3904
nty	-3905
uck	-3906
axim	-3907
▁bro	-3908
ignty	-3909
lfare	-3910
uries	-3911
▁rely	-3912
ashing	-3913
porary	-3914
▁Kenya	-3915
▁seven	-3916
ustrial	-3917
▁During	-3918
▁Policy	-3919
▁active	-3920
▁fallen	-3921
▁Without	-3922
▁destroy	-3923
▁welfare	-3924
▁addition	-3925
▁anything	-3926
▁combined	-3927
▁ecosystem	-3928
▁undermine	-3929
▁innovations	-3930
▁expectations	-3931
The	-3932
era	-3933
oted	-3934
work	-3935
▁der	-3936
▁pan	-3937
▁2010	-3938
▁Will	-3939
▁acad	-3940
▁dict	-3941
▁dism	-3942
▁vers	-3943
ellect	-3944
idency	-3945
▁March	-3946
▁minor	-3947
▁Canada	-3948
▁medium	-3949
▁office	-3950
▁neither	-3951
▁fighting	-3952
▁identify	-3953
▁discrimin	-3954
more	-3955
▁20%	-3956
▁die	-3957
▁tro	-3958
▁urg	-3959
eenth	-3960
▁bear	-3961
▁flex	-3962
▁stra	-3963
istant	-3964
lihood	-3965
lusion	-3966
ulated	-3967
▁block	-3968
▁recon	-3969
▁tight	-3970
ffective	-3971
▁allowing	-3972
▁consolid	-3973
▁globally	-3974
▁borrowing	-3975
▁renewable	-3976
▁greenhouse	-3977
▁Afghanistan	-3978
2.	-3979
duc	-3980
▁Act	-3981
▁Bro	-3982
▁Reg	-3983
▁enj	-3984
ailed	-3985
inent	-3986
risis	-3987
▁July	-3988
▁pace	-3989
▁sell	-3990
policy	-3991
▁wants	-3992
▁Crimea	-3993
▁driven	-3994
▁obstac	-3995
▁England	-3996
▁context	-3997
▁related	-3998
▁researc	-3999
▁perspect	-4000
▁physical	-4001
▁educational	-4002
▁participation	-4003
war	-4004
▁Em	-4005
▁Te	-4006
know	-4007
▁squ	-4008
▁east	-4009
▁spur	-4010
▁type	-4011
▁Count	-4012
▁Those	-4013
▁shape	-4014
▁solid	-4015
▁worked	-4016
▁payments	-4017
▁promises	-4018
▁everything	-4019
▁percentage	-4020
▁entrepreneurs	-4021
-201	-4022
dict	-4023
ints	-4024
▁Sen	-4025
asing	-4026
ivery	-4027
▁2018	-4028
▁June	-4029
▁fert	-4030
racies	-4031
▁Under	-4032
▁micro	-4033
▁Beyond	-4034
▁abroad	-4035
▁battle	-4036
▁factor	-4037
▁modest	-4038
▁centers	-4039
▁decided	-4040
▁parents	-4041
▁starting	-4042
▁Secretary	-4043
▁prospects	-4044
▁differences	-4045
alle	-4046
▁Red	-4047
▁nom	-4048
▁opin	-4049
▁prev	-4050
actions	-4051
▁intens	-4052
▁issued	-4053
▁urgent	-4054
ographic	-4055
▁amounts	-4056
▁message	-4057
▁stories	-4058
▁equality	-4059
▁populist	-4060
▁objectives	-4061
▁potentially	-4062
5.	-4063
US	-4064
bles	-4065
rest	-4066
▁bul	-4067
ching	-4068
idesp	-4069
inian	-4070
rence	-4071
▁Educ	-4072
▁narr	-4073
idered	-4074
rating	-4075
▁Their	-4076
▁asked	-4077
▁Argent	-4078
▁stands	-4079
standing	-4080
▁arrange	-4081
▁comprom	-4082
▁falling	-4083
▁imports	-4084
▁involve	-4085
▁legitim	-4086
▁trading	-4087
idespread	-4088
▁Partners	-4089
▁leverage	-4090
▁Institute	-4091
▁intellect	-4092
▁terrorism	-4093
▁scientific	-4094
▁nationalism	-4095
▁implications	-4096
▁partnerships	-4097
▁transportation	-4098
3,	-4099
ASH	-4100
auc	-4101
▁vo	-4102
ares	-4103
lied	-4104
▁Mac	-4105
▁esc	-4106
▁sil	-4107
alest	-4108
▁Janu	-4109
▁chem	-4110
contro	-4111
luding	-4112
▁round	-4113
▁General	-4114
▁January	-4115
▁getting	-4116
▁heavily	-4117
▁implies	-4118
▁function	-4119
▁involved	-4120
▁marginal	-4121
▁strength	-4122
▁Australia	-4123
▁guarantee	-4124
▁mortality	-4125
▁periphery	-4126
▁considered	-4127
▁presidency	-4128
▁sovereignty	-4129
▁considerable	-4130
▁implementation	-4131
IC	-4132
ev	-4133
leb	-4134
rap	-4135
rog	-4136
▁11	-4137
arsh	-4138
enez	-4139
▁50%	-4140
▁Car	-4141
itude	-4142
▁1930	-4143
▁stay	-4144
▁enabl	-4145
▁imped	-4146
▁stage	-4147
enezuel	-4148
▁execut	-4149
▁underp	-4150
▁network	-4151
▁advances	-4152
▁relevant	-4153
▁otherwise	-4154
▁Nonetheless	-4155
▁appropriate	-4156
▁macroeconomic	-4157
2,	-4158
rew	-4159
rud	-4160
-200	-4161
acco	-4162
resh	-4163
rist	-4164
▁Soc	-4165
adequ	-4166
inton	-4167
oking	-4168
power	-4169
▁Hung	-4170
▁Prot	-4171
▁spir	-4172
▁fewer	-4173
▁maxim	-4174
▁shock	-4175
▁Venezuel	-4176
▁addressed	-4177
▁platforms	-4178
▁technical	-4179
▁Depression	-4180
▁integrated	-4181
▁stagnation	-4182
▁widespread	-4183
▁researchers	-4184
▁immunization	-4185
met	-4186
ode	-4187
abet	-4188
comm	-4189
▁202	-4190
▁Abe	-4191
▁Add	-4192
▁wel	-4193
acerb	-4194
first	-4195
▁WASH	-4196
▁defe	-4197
INGTON	-4198
▁House	-4199
▁adult	-4200
▁langu	-4201
▁waste	-4202
cession	-4203
▁costly	-4204
▁disast	-4205
▁Clinton	-4206
▁compris	-4207
▁exacerb	-4208
▁usually	-4209
▁investig	-4210
▁conflicts	-4211
▁processes	-4212
▁accelerate	-4213
oms	-4214
▁2.	-4215
▁Im	-4216
llor	-4217
▁40%	-4218
▁Ref	-4219
▁crow	-4220
arency	-4221
ivered	-4222
ployed	-4223
▁Every	-4224
▁cycle	-4225
▁faced	-4226
▁grown	-4227
▁liter	-4228
▁works	-4229
▁acknow	-4230
▁instru	-4231
▁merely	-4232
▁choices	-4233
▁closely	-4234
▁elected	-4235
▁imposed	-4236
▁inadequ	-4237
▁lessons	-4238
▁Japanese	-4239
▁included	-4240
▁generally	-4241
▁generations	-4242
EL	-4243
ze	-4244
aul	-4245
def	-4246
gas	-4247
ugh	-4248
dden	-4249
long	-4250
ober	-4251
▁mor	-4252
lines	-4253
ordan	-4254
▁Here	-4255
▁Swed	-4256
▁fell	-4257
▁flaw	-4258
▁wild	-4259
▁wond	-4260
inking	-4261
ivalent	-4262
▁Commun	-4263
▁deeply	-4264
▁remind	-4265
▁robust	-4266
▁budgets	-4267
▁channel	-4268
▁complic	-4269
▁divided	-4270
▁playing	-4271
▁Research	-4272
▁Education	-4273
▁declining	-4274
▁WASHINGTON	-4275
▁Partnership	-4276
▁economically	-4277
▁requirements	-4278
▁transformation	-4279
CC	-4280
eb	-4281
▁17	-4282
▁fa	-4283
ague	-4284
oles	-4285
uous	-4286
▁mar	-4287
▁AIDS	-4288
▁body	-4289
▁gone	-4290
▁pack	-4291
ctober	-4292
▁dimin	-4293
▁exact	-4294
▁light	-4295
▁mortg	-4296
▁space	-4297
▁tried	-4298
▁degree	-4299
▁gather	-4300
▁impose	-4301
▁proved	-4302
▁stabil	-4303
▁sudden	-4304
▁useful	-4305
▁Perhaps	-4306
▁bringing	-4307
▁earnings	-4308
▁northern	-4309
▁inclusion	-4310
▁liquidity	-4311
▁therefore	-4312
▁Democratic	-4313
▁instability	-4314
▁intellectual	-4315
los	-4316
ula	-4317
▁Su	-4318
igor	-4319
sych	-4320
abled	-4321
Americ	-4322
idents	-4323
▁bound	-4324
▁crops	-4325
▁newsp	-4326
▁staff	-4327
rencies	-4328
▁Colomb	-4329
▁conven	-4330
▁defend	-4331
▁divers	-4332
▁played	-4333
▁shocks	-4334
▁October	-4335
▁confron	-4336
▁holding	-4337
▁running	-4338
▁various	-4339
▁alliance	-4340
▁circumst	-4341
▁controls	-4342
▁delivery	-4343
▁transfer	-4344
▁delivered	-4345
▁Investment	-4346
-19	-4347
run	-4348
▁0.	-4349
▁25	-4350
▁Er	-4351
▁Rw	-4352
▁il	-4353
rich	-4354
▁hor	-4355
rison	-4356
▁peak	-4357
iences	-4358
▁schem	-4359
▁solar	-4360
▁truly	-4361
▁users	-4362
▁George	-4363
▁Jordan	-4364
▁bottom	-4365
▁raised	-4366
▁embrace	-4367
▁reported	-4368
▁slowdown	-4369
▁Argentina	-4370
▁remaining	-4371
▁wellbeing	-4372
▁Revolution	-4373
▁diplomatic	-4374
▁infections	-4375
su	-4376
fin	-4377
▁Me	-4378
iant	-4379
ikes	-4380
whel	-4381
▁sto	-4382
iding	-4383
▁Thus	-4384
▁accur	-4385
▁hands	-4386
▁motiv	-4387
▁catast	-4388
▁chains	-4389
▁insist	-4390
▁twenty	-4391
▁chronic	-4392
▁genuine	-4393
▁mistake	-4394
▁whereas	-4395
▁declared	-4396
▁enabling	-4397
▁profound	-4398
▁coalition	-4399
▁promising	-4400
▁facilities	-4401
▁maintaining	-4402
my	-4403
iled	-4404
mbly	-4405
rage	-4406
ties	-4407
▁Ant	-4408
▁Def	-4409
▁fal	-4410
▁fresh	-4411
▁illeg	-4412
▁nation	-4413
▁treaty	-4414
▁finding	-4415
▁realize	-4416
▁turning	-4417
▁happened	-4418
▁ordinary	-4419
▁practice	-4420
▁repeated	-4421
▁determine	-4422
▁displaced	-4423
▁encouraging	-4424
▁vaccination	-4425
▁developments	-4426
▁establishing	-4427
▁quantitative	-4428
▁universities	-4429
4,	-4430
6,	-4431
zy	-4432
100	-4433
inks	-4434
▁His	-4435
▁Mar	-4436
▁bail	-4437
▁exit	-4438
illenn	-4439
itting	-4440
uations	-4441
▁accomp	-4442
▁lesson	-4443
▁concept	-4444
▁illness	-4445
roductive	-4446
▁virtually	-4447
▁circumstances	-4448
nam	-4449
squ	-4450
▁193	-4451
▁Pen	-4452
▁Ange	-4453
▁Bang	-4454
▁anal	-4455
▁teac	-4456
▁celeb	-4457
▁quite	-4458
▁track	-4459
▁offers	-4460
▁paying	-4461
▁signed	-4462
▁Indones	-4463
▁reinfor	-4464
▁underst	-4465
▁opposite	-4466
▁overwhel	-4467
▁positions	-4468
▁parliament	-4469
▁preventing	-4470
▁priorities	-4471
▁resilience	-4472
▁authoritarian	-4473
2%	-4474
OS	-4475
ieth	-4476
▁Ire	-4477
▁Mos	-4478
▁pen	-4479
apore	-4480
ellow	-4481
irect	-4482
orial	-4483
▁2000	-4484
▁fire	-4485
▁goes	-4486
▁join	-4487
ection	-4488
▁Camer	-4489
▁Forum	-4490
account	-4491
▁Korean	-4492
▁killed	-4493
▁Ireland	-4494
▁enforce	-4495
▁Africans	-4496
▁rational	-4497
▁scenario	-4498
▁southern	-4499
▁commodity	-4500
▁eliminate	-4501
▁structure	-4502
▁equivalent	-4503
▁facilitate	-4504
▁mechanisms	-4505
▁underlying	-4506
▁enterprises	-4507
hic	-4508
ken	-4509
nic	-4510
ocu	-4511
ull	-4512
▁60%	-4513
▁sen	-4514
acing	-4515
▁drop	-4516
▁nine	-4517
anging	-4518
herent	-4519
▁hours	-4520
▁leads	-4521
▁psych	-4522
▁volat	-4523
agement	-4524
ogether	-4525
▁aggreg	-4526
▁desper	-4527
▁series	-4528
▁unless	-4529
▁empower	-4530
▁figures	-4531
▁learned	-4532
▁opinion	-4533
▁putting	-4534
formation	-4535
ibilities	-4536
▁peaceful	-4537
▁pursuing	-4538
▁Singapore	-4539
▁described	-4540
▁membership	-4541
▁contributions	-4542
▁unsustainable	-4543
LIN	-4544
asc	-4545
oes	-4546
son	-4547
yle	-4548
▁gl	-4549
adow	-4550
neum	-4551
▁Cal	-4552
▁Rom	-4553
▁ask	-4554
▁ric	-4555
▁Bill	-4556
▁bure	-4557
▁fost	-4558
▁ones	-4559
apital	-4560
stream	-4561
▁enact	-4562
▁ended	-4563
▁imbal	-4564
▁lines	-4565
▁remov	-4566
▁trial	-4567
▁choose	-4568
▁showed	-4569
▁sought	-4570
▁stress	-4571
▁summer	-4572
▁victim	-4573
▁Brother	-4574
▁happens	-4575
▁keeping	-4576
▁sharing	-4577
▁smaller	-4578
▁suffered	-4579
▁Indonesia	-4580
▁perspective	-4581
▁distribution	-4582
▁transparency	-4583
amb	-4584
soc	-4585
▁50	-4586
▁ep	-4587
▁ut	-4588
size	-4589
uard	-4590
▁30%	-4591
▁70%	-4592
▁80%	-4593
▁Man	-4594
▁WHO	-4595
▁awa	-4596
▁dro	-4597
▁unw	-4598
ional	-4599
itter	-4600
▁Cour	-4601
▁Plan	-4602
▁bill	-4603
▁went	-4604
orient	-4605
▁Chair	-4606
▁norms	-4607
▁plant	-4608
lection	-4609
▁Chance	-4610
▁assert	-4611
▁calcul	-4612
▁propag	-4613
▁relief	-4614
▁undert	-4615
▁causing	-4616
▁cutting	-4617
▁dramatic	-4618
▁occurred	-4619
▁isolation	-4620
▁permanent	-4621
▁prevention	-4622
▁remarkable	-4623
▁treatments	-4624
▁capabilities	-4625
▁urbanization	-4626
ife	-4627
ira	-4628
oud	-4629
ulf	-4630
yal	-4631
▁5%	-4632
atal	-4633
iple	-4634
pric	-4635
uber	-4636
uman	-4637
▁Nob	-4638
▁Whe	-4639
▁mer	-4640
esity	-4641
water	-4642
▁Cont	-4643
▁evol	-4644
ground	-4645
▁cheap	-4646
▁guide	-4647
▁occup	-4648
▁steel	-4649
ishment	-4650
▁Palest	-4651
▁mostly	-4652
▁surely	-4653
▁Further	-4654
▁friends	-4655
▁reports	-4656
▁reverse	-4657
nutrition	-4658
▁believed	-4659
▁epidemic	-4660
▁neighbor	-4661
▁weakness	-4662
▁bilateral	-4663
▁mechanism	-4664
▁proposals	-4665
▁providers	-4666
▁inevitable	-4667
▁legitimacy	-4668
▁sanitation	-4669
DA	-4670
atis	-4671
reet	-4672
▁Don	-4673
▁thr	-4674
ernal	-4675
ipped	-4676
onent	-4677
▁Both	-4678
▁Erdo	-4679
▁Food	-4680
▁foot	-4681
▁meat	-4682
▁phil	-4683
▁race	-4684
▁talk	-4685
▁ties	-4686
▁wors	-4687
mented	-4688
overed	-4689
▁begun	-4690
▁debts	-4691
▁enjoy	-4692
▁knows	-4693
▁mosqu	-4694
▁ready	-4695
▁solve	-4696
▁views	-4697
▁Rwanda	-4698
▁reward	-4699
▁transl	-4700
▁Through	-4701
▁fragile	-4702
▁operate	-4703
ineteenth	-4704
intensive	-4705
▁Business	-4706
▁tensions	-4707
▁whatever	-4708
▁Committee	-4709
▁Countries	-4710
▁construct	-4711
▁expanding	-4712
▁extremely	-4713
▁tradition	-4714
▁twentieth	-4715
▁continuing	-4716
▁temperatures	-4717
6%	-4718
pet	-4719
ames	-4720
▁90%	-4721
▁Any	-4722
▁Sea	-4723
▁cra	-4724
▁sea	-4725
aught	-4726
gence	-4727
▁1970	-4728
▁fulf	-4729
commun	-4730
▁Third	-4731
▁added	-4732
▁linked	-4733
▁observ	-4734
▁retain	-4735
▁yields	-4736
▁bureauc	-4737
▁boosting	-4738
▁language	-4739
▁reaching	-4740
▁survival	-4741
▁Venezuela	-4742
▁advocates	-4743
▁conducted	-4744
▁medicines	-4745
▁inadequate	-4746
▁contributed	-4747
▁destruction	-4748
▁devastating	-4749
▁professional	-4750
ma	-4751
cks	-4752
rig	-4753
fare	-4754
free	-4755
iers	-4756
mosp	-4757
▁Eth	-4758
▁hyd	-4759
▁ver	-4760
odies	-4761
uable	-4762
utine	-4763
▁City	-4764
▁Face	-4765
▁Grow	-4766
▁Viet	-4767
▁marr	-4768
▁manip	-4769
▁uncon	-4770
▁BERLIN	-4771
▁Change	-4772
▁figure	-4773
▁preced	-4774
▁prohib	-4775
atlantic	-4776
▁Vietnam	-4777
▁capable	-4778
▁methods	-4779
▁trouble	-4780
▁mobility	-4781
▁protests	-4782
▁underpin	-4783
▁customers	-4784
▁provision	-4785
▁accounting	-4786
▁capitalism	-4787
▁completely	-4788
▁democracies	-4789
▁humanitarian	-4790
▁substantially	-4791
8%	-4792
dr	-4793
ift	-4794
rag	-4795
▁El	-4796
▁ey	-4797
ires	-4798
lock	-4799
wing	-4800
▁tob	-4801
gemon	-4802
▁Alex	-4803
▁docu	-4804
▁none	-4805
▁Nobel	-4806
▁Women	-4807
▁dream	-4808
▁exerc	-4809
▁moved	-4810
▁woman	-4811
artment	-4812
▁Poland	-4813
▁confir	-4814
▁ending	-4815
▁prefer	-4816
ifically	-4817
▁carried	-4818
▁mosquit	-4819
▁offered	-4820
▁partner	-4821
▁setting	-4822
▁studies	-4823
▁tobacco	-4824
roportion	-4825
▁credible	-4826
▁offering	-4827
▁promised	-4828
▁centuries	-4829
▁objective	-4830
▁operating	-4831
▁Parliament	-4832
▁currencies	-4833
▁engagement	-4834
▁resolution	-4835
▁structures	-4836
▁constraints	-4837
▁essentially	-4838
▁collaboration	-4839
▁discrimination	-4840
AV	-4841
yl	-4842
tax	-4843
ager	-4844
band	-4845
bled	-4846
▁Ear	-4847
▁Inc	-4848
▁NCD	-4849
▁hab	-4850
▁oce	-4851
iling	-4852
usion	-4853
▁shap	-4854
▁wake	-4855
reness	-4856
▁Assad	-4857
▁Treas	-4858
▁blame	-4859
▁board	-4860
▁chair	-4861
▁champ	-4862
▁delay	-4863
▁hopes	-4864
▁pneum	-4865
▁posed	-4866
▁aspect	-4867
▁atmosp	-4868
▁decide	-4869
▁survey	-4870
▁Cameron	-4871
▁appoint	-4872
▁artific	-4873
▁bailout	-4874
▁compens	-4875
▁diverse	-4876
▁imagine	-4877
▁justice	-4878
▁pushing	-4879
▁resolve	-4880
▁secular	-4881
▁sharply	-4882
ashington	-4883
▁Facebook	-4884
▁intended	-4885
▁momentum	-4886
▁proposal	-4887
▁aggregate	-4888
▁condition	-4889
▁connected	-4890
▁materials	-4891
▁Chancellor	-4892
▁Conference	-4893
▁represents	-4894
▁credibility	-4895
▁participate	-4896
1%	-4897
4.	-4898
Cs	-4899
alk	-4900
ius	-4901
oly	-4902
▁3.	-4903
cons	-4904
debt	-4905
kept	-4906
mark	-4907
ogle	-4908
olst	-4909
prof	-4910
▁wid	-4911
urers	-4912
▁Bush	-4913
▁Lead	-4914
▁aris	-4915
▁heat	-4916
▁ment	-4917
▁pick	-4918
▁Court	-4919
▁tempt	-4920
develop	-4921
rations	-4922
reement	-4923
urities	-4924
▁Google	-4925
▁applic	-4926
▁assume	-4927
▁emerge	-4928
▁launch	-4929
▁mainly	-4930
▁offset	-4931
▁perpet	-4932
▁tackle	-4933
▁warned	-4934
▁eastern	-4935
▁subsequ	-4936
illennium	-4937
including	-4938
▁informal	-4939
▁patterns	-4940
▁concluded	-4941
▁reflected	-4942
▁workforce	-4943
▁understood	-4944
..	-4945
anz	-4946
aut	-4947
ras	-4948
rat	-4949
▁Kh	-4950
▁Mc	-4951
enty	-4952
moil	-4953
oric	-4954
▁due	-4955
▁hon	-4956
▁mix	-4957
▁Once	-4958
▁aims	-4959
▁fort	-4960
▁grid	-4961
▁compe	-4962
▁escal	-4963
▁grant	-4964
▁holds	-4965
▁homes	-4966
▁joint	-4967
▁phase	-4968
▁signs	-4969
aration	-4970
▁ignore	-4971
▁search	-4972
▁slowly	-4973
▁critics	-4974
▁obesity	-4975
▁pension	-4976
▁purpose	-4977
▁destabil	-4978
▁managing	-4979
▁properly	-4980
▁reporting	-4981
▁candidates	-4982
▁statistics	-4983
▁necessarily	-4984
▁disproportion	-4985
▁effectiveness	-4986
AR	-4987
ops	-4988
emen	-4989
lows	-4990
▁Bet	-4991
▁quo	-4992
arely	-4993
emics	-4994
▁2009	-4995
▁2011	-4996
▁Asse	-4997
▁Cost	-4998
▁Ghan	-4999
▁bold	-5000
▁cong	-5001
▁sold	-5002
abetes	-5003
border	-5004
itably	-5005
▁Board	-5006
▁bolst	-5007
▁chief	-5008
▁safeg	-5009
▁twice	-5010
▁vehic	-5011
▁Angela	-5012
▁Christ	-5013
▁accord	-5014
▁combat	-5015
▁losing	-5016
▁plants	-5017
▁rating	-5018
▁talent	-5019
▁wanted	-5020
▁affairs	-5021
▁exactly	-5022
▁illegal	-5023
▁wealthy	-5024
▁academic	-5025
▁historic	-5026
▁surprise	-5027
▁surround	-5028
▁targeted	-5029
▁taxation	-5030
▁Washington	-5031
▁nineteenth	-5032
▁proportion	-5033
▁surprising	-5034
▁recognition	-5035
▁threatening	-5036
ica	-5037
ray	-5038
▁IS	-5039
Euro	-5040
born	-5041
ebru	-5042
ruit	-5043
▁lab	-5044
▁via	-5045
ading	-5046
olera	-5047
▁Ital	-5048
▁arms	-5049
▁sort	-5050
iberal	-5051
▁2017,	-5052
▁Febru	-5053
▁alike	-5054
▁faith	-5055
▁false	-5056
▁grand	-5057
▁ideal	-5058
▁prime	-5059
▁scope	-5060
▁table	-5061
▁ethnic	-5062
▁explan	-5063
▁resist	-5064
reaching	-5065
▁broadly	-5066
▁capture	-5067
▁content	-5068
▁dynamic	-5069
▁failing	-5070
▁payment	-5071
▁routine	-5072
▁February	-5073
▁educated	-5074
▁urgently	-5075
▁incentive	-5076
▁obstacles	-5077
▁temporary	-5078
▁identified	-5079
▁indicators	-5080
▁previously	-5081
▁Furthermore	-5082
▁accountable	-5083
▁institution	-5084
▁implementing	-5085
▁communication	-5086
kn	-5087
RIS	-5088
how	-5089
aily	-5090
resp	-5091
▁Sch	-5092
▁asp	-5093
▁lay	-5094
inate	-5095
▁Port	-5096
▁biod	-5097
▁diss	-5098
▁fate	-5099
lected	-5100
▁2010,	-5101
▁Ghana	-5102
▁apply	-5103
▁blood	-5104
▁charg	-5105
▁decis	-5106
▁heavy	-5107
▁reput	-5108
▁types	-5109
▁weeks	-5110
▁advert	-5111
▁crimin	-5112
▁interp	-5113
▁transf	-5114
▁enhance	-5115
▁perfect	-5116
▁treated	-5117
▁turmoil	-5118
▁Alliance	-5119
▁Assembly	-5120
▁chemical	-5121
▁declined	-5122
▁released	-5123
▁concerned	-5124
▁emergency	-5125
▁ministers	-5126
▁purchases	-5127
▁secondary	-5128
▁threatens	-5129
▁Millennium	-5130
▁insecurity	-5131
▁livelihood	-5132
▁counterpart	-5133
▁alternatives	-5134
tt	-5135
iop	-5136
▁PA	-5137
appe	-5138
conn	-5139
ifth	-5140
▁205	-5141
▁anx	-5142
endly	-5143
ilipp	-5144
▁High	-5145
▁rhet	-5146
▁tact	-5147
ultane	-5148
▁2015.	-5149
▁2030.	-5150
▁David	-5151
▁accum	-5152
▁court	-5153
▁genet	-5154
culosis	-5155
▁Ethiop	-5156
▁adults	-5157
▁decent	-5158
▁dispar	-5159
▁elites	-5160
▁police	-5161
▁remote	-5162
▁Philipp	-5163
▁correct	-5164
▁equally	-5165
▁persist	-5166
▁Colombia	-5167
▁diabetes	-5168
▁expanded	-5169
▁deflation	-5170
uberculosis	-5171
▁determined	-5172
▁combination	-5173
ko	-5174
cow	-5175
hab	-5176
ias	-5177
men	-5178
oke	-5179
▁Ac	-5180
▁li	-5181
agan	-5182
enom	-5183
rote	-5184
with	-5185
▁saw	-5186
adesh	-5187
igned	-5188
▁alle	-5189
▁born	-5190
▁guid	-5191
▁room	-5192
▁scar	-5193
▁vill	-5194
▁wave	-5195
00,000	-5196
Europe	-5197
ceived	-5198
crisis	-5199
ladesh	-5200
▁2011,	-5201
▁Yemen	-5202
▁crowd	-5203
▁looks	-5204
▁print	-5205
▁sales	-5206
▁storm	-5207
ortions	-5208
uilding	-5209
▁bubble	-5210
▁charge	-5211
▁conver	-5212
▁latter	-5213
▁saving	-5214
▁taxpay	-5215
veraging	-5216
▁engaged	-5217
▁hegemon	-5218
▁mothers	-5219
▁pointed	-5220
▁regimes	-5221
▁variety	-5222
▁identity	-5223
▁medicine	-5224
▁mitigate	-5225
▁Democrats	-5226
▁ownership	-5227
▁experiment	-5228
▁regardless	-5229
▁university	-5230
▁progressive	-5231
▁restrictions	-5232
▁accountability	-5233
PP	-5234
wor	-5235
▁13	-5236
▁2%	-5237
▁3%	-5238
▁sy	-5239
▁Big	-5240
▁Inf	-5241
▁Mor	-5242
▁Sum	-5243
▁got	-5244
▁pie	-5245
agers	-5246
astic	-5247
place	-5248
▁cars	-5249
▁enem	-5250
▁rank	-5251
▁seed	-5252
ailing	-5253
energy	-5254
ptions	-5255
▁Again	-5256
▁helps	-5257
▁saved	-5258
▁spect	-5259
▁traff	-5260
▁Moscow	-5261
▁bigger	-5262
▁cooper	-5263
▁extend	-5264
▁marked	-5265
▁calling	-5266
▁comment	-5267
▁defined	-5268
▁himself	-5269
▁mission	-5270
▁survive	-5271
resistant	-5272
▁creative	-5273
▁returned	-5274
▁systemic	-5275
▁awareness	-5276
▁criticism	-5277
▁employees	-5278
▁fundament	-5279
▁movements	-5280
▁narrative	-5281
▁opponents	-5282
▁producing	-5283
▁territory	-5284
▁terrorist	-5285
▁Bangladesh	-5286
▁Convention	-5287
▁consistent	-5288
▁solidarity	-5289
▁immediately	-5290
▁nationalist	-5291
▁contribution	-5292
▁demonstrated	-5293
▁successfully	-5294
ES	-5295
ux	-5296
gic	-5297
oon	-5298
iate	-5299
uras	-5300
▁Mod	-5301
▁Two	-5302
▁cha	-5303
agues	-5304
cular	-5305
licit	-5306
▁male	-5307
pected	-5308
rights	-5309
▁2030,	-5310
▁chain	-5311
▁persu	-5312
society	-5313
▁Growth	-5314
▁Market	-5315
▁Recent	-5316
▁allows	-5317
▁argues	-5318
▁attend	-5319
▁humans	-5320
▁sexual	-5321
▁weight	-5322
oriented	-5323
▁creates	-5324
▁exposed	-5325
▁players	-5326
▁showing	-5327
▁maternal	-5328
▁measured	-5329
▁supervis	-5330
▁gradually	-5331
▁infection	-5332
▁simultane	-5333
▁transfers	-5334
▁foundation	-5335
▁discussions	-5336
▁expenditure	-5337
▁willingness	-5338
▁participants	-5339
▁transactions	-5340
▁protectionism	-5341
add	-5342
mar	-5343
unn	-5344
▁14	-5345
alls	-5346
vard	-5347
▁1.5	-5348
▁Kim	-5349
▁Unt	-5350
▁adm	-5351
▁ded	-5352
▁eru	-5353
▁lag	-5354
▁Bern	-5355
▁NCDs	-5356
▁felt	-5357
▁gaps	-5358
▁soil	-5359
▁2008,	-5360
▁Human	-5361
▁equip	-5362
▁gives	-5363
▁input	-5364
▁mount	-5365
▁visit	-5366
▁Macron	-5367
▁Nether	-5368
▁gained	-5369
▁symbol	-5370
▁Conserv	-5371
▁anticip	-5372
▁consist	-5373
▁fueling	-5374
▁prepare	-5375
▁pursued	-5376
▁violent	-5377
▁bankrupt	-5378
▁interven	-5379
▁rhetoric	-5380
▁campaigns	-5381
▁diplomacy	-5382
▁emergence	-5383
▁delivering	-5384
▁discussion	-5385
▁ecosystems	-5386
▁Netherlands	-5387
▁improvement	-5388
▁conservative	-5389
▁improvements	-5390
▁establishment	-5391
CS	-5392
bi	-5393
che	-5394
cri	-5395
kes	-5396
lit	-5397
▁NG	-5398
▁Ug	-5399
▁je	-5400
bial	-5401
lets	-5402
pril	-5403
rete	-5404
stit	-5405
▁Aug	-5406
▁Bas	-5407
▁fle	-5408
apers	-5409
known	-5410
sight	-5411
▁gave	-5412
▁irre	-5413
▁uses	-5414
▁acute	-5415
▁wider	-5416
▁wrote	-5417
illance	-5418
▁Sweden	-5419
▁absorb	-5420
▁appeal	-5421
▁brings	-5422
▁closed	-5423
▁incomp	-5424
▁mutual	-5425
▁wonder	-5426
ophistic	-5427
▁bubbles	-5428
▁farming	-5429
▁someone	-5430
▁welcome	-5431
▁invested	-5432
▁teachers	-5433
▁affecting	-5434
▁hospitals	-5435
▁encouraged	-5436
▁Philippines	-5437
▁transparent	-5438
ony	-5439
rue	-5440
▁1%	-5441
▁AI	-5442
▁Ts	-5443
empl	-5444
what	-5445
▁App	-5446
▁Yes	-5447
▁obt	-5448
▁sac	-5449
anish	-5450
erous	-5451
ested	-5452
integ	-5453
▁brid	-5454
▁text	-5455
arters	-5456
▁Gates	-5457
▁Group	-5458
▁PARIS	-5459
▁Techn	-5460
▁Until	-5461
▁daily	-5462
▁delib	-5463
▁offic	-5464
▁ruled	-5465
▁satis	-5466
▁speak	-5467
▁Report	-5468
▁Social	-5469
▁actual	-5470
▁degrad	-5471
▁legacy	-5472
▁poorly	-5473
▁proven	-5474
icrobial	-5475
▁Harvard	-5476
▁looking	-5477
▁accepted	-5478
▁adoption	-5479
▁compound	-5480
▁discoura	-5481
▁examples	-5482
▁rejected	-5483
▁arguments	-5484
▁happening	-5485
▁artificial	-5486
▁atmosphere	-5487
▁compromise	-5488
▁challenging	-5489
▁demographic	-5490
▁demonstrate	-5491
▁biodiversity	-5492
CO	-5493
imp	-5494
let	-5495
nex	-5496
▁40	-5497
▁Cy	-5498
AIDS	-5499
ania	-5500
odes	-5501
reme	-5502
▁BRI	-5503
▁Cle	-5504
▁Gaz	-5505
▁Off	-5506
▁lie	-5507
▁meg	-5508
price	-5509
▁Spec	-5510
▁pipe	-5511
icious	-5512
▁April	-5513
▁aging	-5514
▁badly	-5515
▁noted	-5516
▁react	-5517
▁August	-5518
▁Center	-5519
▁attrib	-5520
▁deprec	-5521
▁fueled	-5522
▁privat	-5523
▁reluct	-5524
▁thanks	-5525
communic	-5526
▁Italian	-5527
▁Muslims	-5528
▁assumed	-5529
▁cholera	-5530
▁compete	-5531
▁deposit	-5532
▁enabled	-5533
▁Treasury	-5534
▁elements	-5535
▁humanity	-5536
▁replaced	-5537
▁strongly	-5538
▁supplies	-5539
liferation	-5540
▁Keynesian	-5541
▁dictators	-5542
▁primarily	-5543
▁commission	-5544
▁complement	-5545
▁propaganda	-5546
▁threatened	-5547
▁livelihoods	-5548
▁territorial	-5549
MR	-5550
ips	-5551
ume	-5552
xic	-5553
bert	-5554
ctic	-5555
fund	-5556
icot	-5557
lder	-5558
ompl	-5559
stan	-5560
▁Sil	-5561
▁Tun	-5562
heast	-5563
iforn	-5564
rific	-5565
▁Gulf	-5566
▁Hong	-5567
▁Kong	-5568
▁arch	-5569
▁exam	-5570
▁murd	-5571
▁tons	-5572
▁Treat	-5573
▁armed	-5574
▁defin	-5575
▁donor	-5576
▁fixed	-5577
▁pregn	-5578
▁refer	-5579
Pacific	-5580
▁defeat	-5581
▁desire	-5582
▁joined	-5583
▁senior	-5584
▁volunt	-5585
▁weaker	-5586
function	-5587
▁collaps	-5588
▁Californ	-5589
▁Ethiopia	-5590
▁approval	-5591
▁balanced	-5592
▁computer	-5593
▁damaging	-5594
▁outright	-5595
▁valuable	-5596
▁Agreement	-5597
▁sophistic	-5598
▁imbalances	-5599
▁journalism	-5600
▁supporters	-5601
▁engineering	-5602
▁malnutrition	-5603
▁surveillance	-5604
3.	-5605
cut	-5606
aded	-5607
cost	-5608
grid	-5609
uris	-5610
xide	-5611
▁Ben	-5612
▁alt	-5613
▁bur	-5614
▁lob	-5615
▁nav	-5616
▁sus	-5617
▁Init	-5618
▁Much	-5619
▁emot	-5620
▁susp	-5621
adjust	-5622
aining	-5623
holder	-5624
urally	-5625
▁alarm	-5626
▁artic	-5627
▁doesn	-5628
▁fears	-5629
▁obser	-5630
▁poses	-5631
▁stead	-5632
perform	-5633
▁Agency	-5634
▁Portug	-5635
▁Uganda	-5636
▁origin	-5637
▁passed	-5638
▁pushed	-5639
▁scarce	-5640
▁expense	-5641
▁preserve	-5642
imicrobial	-5643
▁Ukrainian	-5644
▁pneumonia	-5645
▁attractive	-5646
▁conclusion	-5647
▁legitimate	-5648
▁struggling	-5649
▁arrangements	-5650
6.	-5651
7,	-5652
8,	-5653
GB	-5654
agg	-5655
▁Sm	-5656
ador	-5657
▁Hol	-5658
▁hot	-5659
▁wis	-5660
asive	-5661
erals	-5662
orage	-5663
trade	-5664
▁Free	-5665
▁bomb	-5666
▁died	-5667
▁gene	-5668
▁iron	-5669
▁says	-5670
▁toll	-5671
▁annex	-5672
▁apart	-5673
▁recip	-5674
▁shale	-5675
through	-5676
▁escape	-5677
▁placed	-5678
▁rarely	-5679
▁shadow	-5680
national	-5681
▁mandate	-5682
▁painful	-5683
▁although	-5684
▁diagnost	-5685
▁explicit	-5686
▁incorpor	-5687
▁regarded	-5688
▁reliable	-5689
industrial	-5690
▁benefited	-5691
▁disasters	-5692
▁sentiment	-5693
▁similarly	-5694
▁California	-5695
▁aggressive	-5696
▁frameworks	-5697
▁guaranteed	-5698
governmental	-5699
▁availability	-5700
▁considerably	-5701
▁unconventional	-5702
go	-5703
bit	-5704
vin	-5705
▁1,	-5706
▁IP	-5707
lete	-5708
ogue	-5709
omal	-5710
ownt	-5711
pted	-5712
▁25%	-5713
anied	-5714
arrhe	-5715
class	-5716
▁Tanz	-5717
▁didn	-5718
▁lend	-5719
▁wait	-5720
icated	-5721
▁2009,	-5722
▁Among	-5723
▁Tunis	-5724
▁coast	-5725
▁downt	-5726
▁rebal	-5727
▁tests	-5728
▁voice	-5729
ressing	-5730
▁Treaty	-5731
▁harder	-5732
▁height	-5733
▁legisl	-5734
▁spirit	-5735
▁strike	-5736
▁traged	-5737
▁Hungary	-5738
▁Pacific	-5739
▁adverse	-5740
▁drought	-5741
▁killing	-5742
▁package	-5743
inational	-5744
ressional	-5745
▁extraord	-5746
▁minority	-5747
▁mortgage	-5748
▁possibly	-5749
▁revealed	-5750
▁shifting	-5751
▁standing	-5752
▁underest	-5753
▁Stability	-5754
▁candidate	-5755
▁diversity	-5756
▁expertise	-5757
▁predicted	-5758
▁prevented	-5759
▁seemingly	-5760
▁taxpayers	-5761
▁impressive	-5762
▁inevitably	-5763
▁repeatedly	-5764
▁accompanied	-5765
▁eradication	-5766
▁instruments	-5767
▁undermining	-5768
▁characterized	-5769
▁professionals	-5770
AP	-5771
TA	-5772
uk	-5773
▁z	-5774
fol	-5775
rus	-5776
▁4%	-5777
▁Bl	-5778
▁FD	-5779
ches	-5780
serv	-5781
uses	-5782
▁Law	-5783
▁You	-5784
▁fil	-5785
▁shr	-5786
▁Paul	-5787
▁insu	-5788
▁phen	-5789
▁shut	-5790
▁unex	-5791
istrib	-5792
▁Child	-5793
▁kinds	-5794
▁simpl	-5795
▁toler	-5796
▁watch	-5797
▁disput	-5798
▁exclus	-5799
▁ratios	-5800
interest	-5801
▁avoided	-5802
▁devices	-5803
▁disappe	-5804
▁enables	-5805
▁forests	-5806
▁influen	-5807
▁minimum	-5808
▁concrete	-5809
▁deterior	-5810
▁focusing	-5811
▁phenomen	-5812
▁organized	-5813
▁practical	-5814
▁shortages	-5815
▁Department	-5816
▁assumption	-5817
▁frequently	-5818
▁reasonable	-5819
▁experiences	-5820
▁transformed	-5821
▁counterparts	-5822
▁stakeholders	-5823
);	-5824
me	-5825
Ass	-5826
alf	-5827
bed	-5828
gor	-5829
ole	-5830
▁Ma	-5831
aust	-5832
comp	-5833
iage	-5834
icon	-5835
mers	-5836
▁191	-5837
▁Cur	-5838
▁bab	-5839
▁dim	-5840
opard	-5841
▁2020	-5842
▁2030	-5843
▁Back	-5844
▁barg	-5845
▁pool	-5846
▁qual	-5847
▁rare	-5848
orting	-5849
owered	-5850
thirds	-5851
▁Somal	-5852
▁older	-5853
▁roads	-5854
▁speed	-5855
▁write	-5856
▁Reagan	-5857
▁bodies	-5858
▁distin	-5859
▁exclud	-5860
▁overse	-5861
▁secret	-5862
▁transm	-5863
▁trials	-5864
▁Already	-5865
▁initial	-5866
▁jeopard	-5867
▁version	-5868
▁downturn	-5869
▁imposing	-5870
▁moderate	-5871
▁multiple	-5872
▁purchase	-5873
▁supports	-5874
▁childhood	-5875
▁component	-5876
▁recommend	-5877
▁stimulate	-5878
▁targeting	-5879
▁colleagues	-5880
▁meaningful	-5881
▁subsequent	-5882
▁television	-5883
▁insufficient	-5884
▁policymaking	-5885
▁sophisticated	-5886
▁simultaneously	-5887
EC	-5888
GDP	-5889
bas	-5890
enh	-5891
▁ES	-5892
kish	-5893
rees	-5894
▁aud	-5895
Assad	-5896
dered	-5897
▁Fore	-5898
▁Vacc	-5899
▁brut	-5900
▁dial	-5901
▁knew	-5902
▁stre	-5903
▁warn	-5904
driven	-5905
ioxide	-5906
▁brain	-5907
▁moves	-5908
▁risky	-5909
▁rival	-5910
ocratic	-5911
reshold	-5912
▁backed	-5913
▁broken	-5914
▁prison	-5915
▁scheme	-5916
▁weaken	-5917
▁Program	-5918
▁dangers	-5919
▁proceed	-5920
▁species	-5921
inflation	-5922
▁Atlantic	-5923
▁Egyptian	-5924
▁accurate	-5925
▁ambition	-5926
▁anywhere	-5927
▁somewhat	-5928
▁equipment	-5929
▁outbreaks	-5930
▁reinforce	-5931
▁requiring	-5932
▁residents	-5933
▁seriously	-5934
▁dependence	-5935
▁prosperous	-5936
▁achievement	-5937
▁considering	-5938
▁preventable	-5939
▁supervision	-5940
▁neighborhood	-5941
▁respectively	-5942
▁consolidation	-5943
▁multinational	-5944
▁transatlantic	-5945
omy	-5946
uit	-5947
▁60	-5948
alin	-5949
pass	-5950
roph	-5951
ysts	-5952
▁CEO	-5953
▁Jew	-5954
▁Net	-5955
▁Pet	-5956
iking	-5957
ipras	-5958
▁Dise	-5959
▁enth	-5960
▁mere	-5961
▁tour	-5962
iments	-5963
itness	-5964
▁Water	-5965
▁elder	-5966
▁facts	-5967
▁inequ	-5968
▁sympt	-5969
▁throw	-5970
▁white	-5971
▁Public	-5972
▁barely	-5973
▁served	-5974
▁viable	-5975
▁waters	-5976
adjusted	-5977
▁Clearly	-5978
▁Iranian	-5979
▁Tsipras	-5980
▁accompl	-5981
▁inflows	-5982
▁portfol	-5983
▁privacy	-5984
▁prolong	-5985
▁relying	-5986
▁announce	-5987
▁approved	-5988
▁criminal	-5989
▁disinteg	-5990
▁foremost	-5991
▁carefully	-5992
▁contracts	-5993
▁eradicate	-5994
▁newspaper	-5995
▁resilient	-5996
▁threshold	-5997
information	-5998
▁automation	-5999
▁concerning	-6000
▁depression	-6001
▁purchasing	-6002
▁statements	-6003
▁concentrated	-6004
AD	-6005
iny	-6006
kov	-6007
pot	-6008
sey	-6009
tra	-6010
bing	-6011
lash	-6012
ocol	-6013
oubt	-6014
pper	-6015
redu	-6016
ware	-6017
▁195	-6018
▁Ber	-6019
▁Dis	-6020
ashar	-6021
hetic	-6022
▁NGOs	-6023
▁Next	-6024
▁Simp	-6025
▁True	-6026
▁magn	-6027
▁wise	-6028
iative	-6029
ranean	-6030
unicip	-6031
▁2000,	-6032
▁Costa	-6033
▁Libya	-6034
▁check	-6035
▁inher	-6036
▁laure	-6037
▁night	-6038
▁usual	-6039
ructive	-6040
▁Rights	-6041
▁Robert	-6042
▁apprec	-6043
▁except	-6044
▁intent	-6045
▁opened	-6046
▁slight	-6047
▁uphold	-6048
igration	-6049
▁Finance	-6050
▁Foreign	-6051
▁Israeli	-6052
▁applied	-6053
▁bolster	-6054
▁corrupt	-6055
▁diarrhe	-6056
▁streets	-6057
▁tragedy	-6058
▁trained	-6059
▁victims	-6060
▁limiting	-6061
▁presence	-6062
▁reliance	-6063
▁suddenly	-6064
▁Political	-6065
▁regarding	-6066
▁restoring	-6067
▁suggested	-6068
▁expectancy	-6069
▁maintained	-6070
▁volatility	-6071
▁acknowledge	-6072
▁foundations	-6073
▁predictable	-6074
▁constitution	-6075
▁coordination	-6076
9%	-6077
?”	-6078
tr	-6079
500	-6080
iar	-6081
oor	-6082
▁24	-6083
real	-6084
▁Del	-6085
▁Sud	-6086
eping	-6087
opoly	-6088
▁Serv	-6089
▁Wall	-6090
▁diet	-6091
▁forg	-6092
▁kept	-6093
▁mini	-6094
▁resc	-6095
itudes	-6096
▁Basel	-6097
▁Euras	-6098
▁chaos	-6099
▁fails	-6100
▁heard	-6101
▁loyal	-6102
▁polls	-6103
▁reass	-6104
▁Bashar	-6105
▁Energy	-6106
▁Norway	-6107
▁breast	-6108
▁enthus	-6109
▁shares	-6110
▁stance	-6111
European	-6112
oubtedly	-6113
unicipal	-6114
▁Defense	-6115
▁convers	-6116
▁drivers	-6117
▁focuses	-6118
▁opposed	-6119
▁renewed	-6120
▁Northern	-6121
▁adopting	-6122
▁attempts	-6123
▁champion	-6124
▁estimate	-6125
▁extended	-6126
▁weakened	-6127
▁generated	-6128
▁perception	-6129
▁settlement	-6130
▁Brotherhood	-6131
▁enforcement	-6132
▁obligations	-6133
▁temperature	-6134
▁contributing	-6135
▁fundamentally	-6136
▁vulnerability	-6137
bor	-6138
uty	-6139
berg	-6140
cure	-6141
larg	-6142
rick	-6143
▁Aut	-6144
▁Sur	-6145
▁anc	-6146
▁bra	-6147
▁liv	-6148
▁odd	-6149
▁ple	-6150
▁tom	-6151
▁tow	-6152
bling	-6153
idden	-6154
osure	-6155
▁Each	-6156
▁Emer	-6157
▁Four	-6158
▁ISIS	-6159
▁Kurd	-6160
▁eval	-6161
▁root	-6162
▁rose	-6163
▁tail	-6164
depend	-6165
▁2016.	-6166
▁Frank	-6167
▁Power	-6168
▁Times	-6169
▁crash	-6170
▁elite	-6171
▁foods	-6172
▁forth	-6173
▁risen	-6174
▁south	-6175
▁turns	-6176
▁Romney	-6177
▁divide	-6178
▁fourth	-6179
▁inputs	-6180
▁retail	-6181
▁stream	-6182
▁However	-6183
▁anxiety	-6184
▁closing	-6185
▁concert	-6186
▁entered	-6187
▁gaining	-6188
▁missile	-6189
▁storage	-6190
▁worried	-6191
▁backlash	-6192
▁publicly	-6193
▁threaten	-6194
▁Recession	-6195
▁ambitions	-6196
▁confident	-6197
▁demanding	-6198
▁electoral	-6199
▁healthier	-6200
▁observers	-6201
▁pressures	-6202
▁accessible	-6203
▁emphasized	-6204
▁imperative	-6205
▁optimistic	-6206
▁repression	-6207
▁unemployed	-6208
▁Environment	-6209
▁neighboring	-6210
▁undoubtedly	-6211
10	-6212
90	-6213
IP	-6214
vy	-6215
gia	-6216
isp	-6217
uff	-6218
▁BR	-6219
▁Os	-6220
ingu	-6221
ping	-6222
▁15%	-6223
▁192	-6224
▁sch	-6225
▁swe	-6226
▁tim	-6227
▁1960	-6228
▁Hist	-6229
▁MDGs	-6230
▁burn	-6231
▁cart	-6232
▁lift	-6233
▁loan	-6234
▁pose	-6235
▁advis	-6236
▁lacks	-6237
▁logic	-6238
termath	-6239
▁Unless	-6240
▁advice	-6241
▁define	-6242
▁depart	-6243
▁father	-6244
▁flawed	-6245
▁funded	-6246
▁leaves	-6247
▁obtain	-6248
▁therap	-6249
outheast	-6250
▁Spanish	-6251
▁Turkish	-6252
▁affects	-6253
▁elderly	-6254
▁element	-6255
▁greatly	-6256
▁harvest	-6257
▁opening	-6258
▁planned	-6259
▁refused	-6260
▁selling	-6261
▁slowing	-6262
rudential	-6263
▁discover	-6264
▁flexible	-6265
▁managers	-6266
▁meetings	-6267
▁resulted	-6268
▁underway	-6269
▁aftermath	-6270
▁borrowers	-6271
▁equitable	-6272
▁receiving	-6273
▁redistrib	-6274
▁Economists	-6275
▁apparently	-6276
▁constantly	-6277
▁immigrants	-6278
▁mainstream	-6279
▁eliminating	-6280
▁explanation	-6281
▁flexibility	-6282
▁conservation	-6283
▁experiencing	-6284
SB	-6285
emb	-6286
rey	-6287
▁ma	-6288
hand	-6289
ores	-6290
sels	-6291
▁Bel	-6292
▁Moh	-6293
▁bit	-6294
ashed	-6295
hered	-6296
point	-6297
rates	-6298
style	-6299
using	-6300
▁cell	-6301
▁sets	-6302
necess	-6303
orship	-6304
▁Franc	-6305
▁abuse	-6306
▁black	-6307
▁catch	-6308
▁deals	-6309
▁penal	-6310
▁revol	-6311
enomics	-6312
oration	-6313
osition	-6314
▁Stalin	-6315
▁flight	-6316
▁foster	-6317
▁philos	-6318
▁Economy	-6319
▁Justice	-6320
▁Tunisia	-6321
▁Whether	-6322
▁consult	-6323
▁decreas	-6324
▁ethical	-6325
▁grounds	-6326
▁notably	-6327
▁patient	-6328
▁Agricult	-6329
▁Portugal	-6330
▁Tanzania	-6331
▁deposits	-6332
▁dominant	-6333
▁pressing	-6334
▁reaction	-6335
▁religion	-6336
▁separate	-6337
▁severely	-6338
▁vehicles	-6339
▁municipal	-6340
▁annexation	-6341
▁controvers	-6342
▁executives	-6343
▁persistent	-6344
▁complicated	-6345
▁liabilities	-6346
▁reproductive	-6347
▁strengthened	-6348
25	-6349
9.	-6350
fe	-6351
hy	-6352
uz	-6353
ana	-6354
ses	-6355
▁21	-6356
▁wa	-6357
body	-6358
fall	-6359
orer	-6360
uate	-6361
view	-6362
▁AMR	-6363
▁Day	-6364
▁Sup	-6365
▁doz	-6366
▁ing	-6367
▁kil	-6368
▁sun	-6369
chang	-6370
ecess	-6371
erson	-6372
gered	-6373
olars	-6374
▁army	-6375
▁dele	-6376
▁dign	-6377
▁judg	-6378
▁runs	-6379
▁trem	-6380
▁vary	-6381
clical	-6382
iances	-6383
saving	-6384
▁1930’	-6385
▁White	-6386
▁absol	-6387
▁aside	-6388
▁disag	-6389
▁fever	-6390
▁ocean	-6391
control	-6392
▁phones	-6393
▁poorer	-6394
▁proced	-6395
▁prosec	-6396
▁signal	-6397
inations	-6398
▁Supreme	-6399
▁cheaper	-6400
▁dispute	-6401
▁evident	-6402
▁fulfill	-6403
▁outlets	-6404
▁skilled	-6405
▁substit	-6406
▁warning	-6407
▁whereby	-6408
▁decisive	-6409
▁dialogue	-6410
▁downward	-6411
▁exercise	-6412
▁failures	-6413
▁mistakes	-6414
▁unnecess	-6415
▁allocated	-6416
▁executive	-6417
▁introduce	-6418
▁safeguard	-6419
▁Initiative	-6420
▁assessment	-6421
▁catastroph	-6422
▁monitoring	-6423
▁reputation	-6424
▁ineffective	-6425
▁dictatorship	-6426
▁communications	-6427
TT	-6428
gu	-6429
ski	-6430
urg	-6431
▁35	-6432
▁70	-6433
amed	-6434
ests	-6435
fort	-6436
sing	-6437
▁500	-6438
▁Ang	-6439
▁BoE	-6440
▁Imp	-6441
▁Sol	-6442
▁cul	-6443
▁mil	-6444
▁slo	-6445
▁sup	-6446
▁vac	-6447
adays	-6448
gener	-6449
itect	-6450
▁Sunn	-6451
▁ball	-6452
▁cold	-6453
▁flee	-6454
▁hear	-6455
▁pict	-6456
▁send	-6457
▁sole	-6458
ailand	-6459
ipline	-6460
▁Chile	-6461
▁Doing	-6462
▁Front	-6463
▁Green	-6464
▁ranks	-6465
▁seeks	-6466
▁sites	-6467
▁tough	-6468
General	-6469
inating	-6470
lements	-6471
private	-6472
ulating	-6473
▁Simply	-6474
▁Street	-6475
▁afflic	-6476
▁courts	-6477
▁deadly	-6478
▁mental	-6479
▁metric	-6480
▁mining	-6481
▁saying	-6482
▁wisdom	-6483
▁Liberia	-6484
▁Malaria	-6485
▁Somalia	-6486
▁courage	-6487
▁dropped	-6488
▁monitor	-6489
▁monopol	-6490
▁premium	-6491
connected	-6492
▁analysts	-6493
▁diarrhea	-6494
▁features	-6495
▁finances	-6496
▁findings	-6497
▁sacrific	-6498
▁straight	-6499
▁architect	-6500
▁broadband	-6501
▁dependent	-6502
▁gathering	-6503
▁ourselves	-6504
▁projected	-6505
▁succeeded	-6506
▁successor	-6507
▁Industrial	-6508
▁compelling	-6509
▁disruptive	-6510
▁advertising	-6511
▁assumptions	-6512
▁coordinated	-6513
▁breakthrough	-6514
▁historically	-6515
▁confrontation	-6516
lu	-6517
zo	-6518
...	-6519
USS	-6520
fri	-6521
rum	-6522
▁22	-6523
cles	-6524
kers	-6525
odox	-6526
onds	-6527
risk	-6528
rors	-6529
uity	-6530
▁Emp	-6531
▁Far	-6532
▁TPP	-6533
▁web	-6534
alley	-6535
efore	-6536
iques	-6537
itics	-6538
minbi	-6539
▁date	-6540
▁door	-6541
▁epis	-6542
▁fasc	-6543
▁fine	-6544
▁grew	-6545
▁inse	-6546
▁pure	-6547
▁sequ	-6548
▁tech	-6549
▁trap	-6550
▁unit	-6551
inding	-6552
profit	-6553
▁aspir	-6554
▁multi	-6555
▁parad	-6556
▁unity	-6557
▁Malays	-6558
▁School	-6559
▁animal	-6560
▁career	-6561
▁endors	-6562
▁fertil	-6563
▁shifts	-6564
▁unrest	-6565
▁Mediter	-6566
▁animals	-6567
▁clinics	-6568
▁details	-6569
▁dioxide	-6570
▁ignored	-6571
▁lasting	-6572
▁machine	-6573
▁pledged	-6574
▁reduces	-6575
▁Islamist	-6576
▁Thailand	-6577
▁disputes	-6578
▁geograph	-6579
▁socially	-6580
▁computers	-6581
▁desperate	-6582
▁dominated	-6583
▁motivated	-6584
▁perceived	-6585
▁predecess	-6586
▁presented	-6587
▁triggered	-6588
▁advantages	-6589
▁bankruptcy	-6590
▁ecological	-6591
▁recognizes	-6592
▁degradation	-6593
▁involvement	-6594
▁recognizing	-6595
▁catastrophic	-6596
▁consistently	-6597
▁expenditures	-6598
▁surprisingly	-6599
▁Mediterranean	-6600
▁parliamentary	-6601
▁relationships	-6602
8.	-6603
EF	-6604
ih	-6605
ij	-6606
ela	-6607
ino	-6608
ley	-6609
▁4.	-6610
▁IC	-6611
brid	-6612
educ	-6613
etty	-6614
ilib	-6615
otic	-6616
rank	-6617
rium	-6618
rous	-6619
urch	-6620
ylum	-6621
▁FDI	-6622
▁Gre	-6623
claim	-6624
ommod	-6625
onial	-6626
oning	-6627
▁Good	-6628
▁Hill	-6629
▁Mand	-6630
▁ease	-6631
▁gets	-6632
▁rent	-6633
▁seas	-6634
keptic	-6635
rative	-6636
▁Moroc	-6637
▁corre	-6638
▁minds	-6639
▁toxic	-6640
▁votes	-6641
essions	-6642
sharing	-6643
▁asylum	-6644
▁couple	-6645
▁murder	-6646
▁retire	-6647
▁struck	-6648
▁troops	-6649
▁unfair	-6650
quarters	-6651
rational	-6652
▁Mandela	-6653
▁claimed	-6654
▁college	-6655
▁customs	-6656
▁outlook	-6657
▁testing	-6658
▁traffic	-6659
▁trigger	-6660
▁visible	-6661
ltimately	-6662
reduction	-6663
▁exposure	-6664
▁infected	-6665
▁marriage	-6666
▁maximize	-6667
▁mosquito	-6668
▁renminbi	-6669
▁sensible	-6670
controlled	-6671
orestation	-6672
▁exporters	-6673
▁expressed	-6674
▁forecasts	-6675
▁governing	-6676
▁prominent	-6677
▁weakening	-6678
▁Government	-6679
▁Ultimately	-6680
▁controlled	-6681
▁provisions	-6682
▁association	-6683
▁consequence	-6684
▁contraction	-6685
▁interesting	-6686
▁negotiating	-6687
▁shareholders	-6688
▁tuberculosis	-6689
▁antimicrobial	-6690
▁extraordinary	-6691
▁proliferation	-6692
▁constitutional	-6693
40	-6694
70	-6695
Ch	-6696
IT	-6697
ME	-6698
na	-6699
ns	-6700
alt	-6701
ctr	-6702
ett	-6703
osn	-6704
ugg	-6705
ups	-6706
▁10	-6707
▁Ky	-6708
anke	-6709
aval	-6710
coin	-6711
hors	-6712
iest	-6713
izer	-6714
prom	-6715
uble	-6716
ught	-6717
velt	-6718
▁Air	-6719
▁End	-6720
▁Mad	-6721
▁McK	-6722
▁Pan	-6723
▁WTO	-6724
▁ult	-6725
inded	-6726
redit	-6727
▁Rica	-6728
▁ends	-6729
▁hurt	-6730
▁note	-6731
▁onto	-6732
▁synt	-6733
▁tens	-6734
ashion	-6735
establ	-6736
igital	-6737
insula	-6738
lessly	-6739
resent	-6740
▁Innov	-6741
▁Inter	-6742
▁Roose	-6743
▁Where	-6744
▁books	-6745
▁crime	-6746
▁eager	-6747
▁facto	-6748
▁newly	-6749
▁overh	-6750
▁phone	-6751
growing	-6752
▁Before	-6753
▁Donbas	-6754
▁Making	-6755
▁Should	-6756
▁drives	-6757
▁fellow	-6758
▁fields	-6759
▁harass	-6760
▁invent	-6761
▁island	-6762
▁plenty	-6763
▁sooner	-6764
▁thrive	-6765
American	-6766
▁Germans	-6767
▁classes	-6768
▁deserve	-6769
▁enacted	-6770
▁foresee	-6771
▁genetic	-6772
▁missing	-6773
▁preserv	-6774
▁stopped	-6775
▁witness	-6776
effective	-6777
▁Bernanke	-6778
▁accommod	-6779
▁clinical	-6780
▁conclude	-6781
▁ideology	-6782
▁investor	-6783
▁laureate	-6784
▁overlook	-6785
▁reversed	-6786
▁Roosevelt	-6787
▁activists	-6788
▁discussed	-6789
▁employers	-6790
▁extensive	-6791
▁realities	-6792
▁statement	-6793
▁background	-6794
▁disruption	-6795
▁securities	-6796
▁techniques	-6797
▁unexpected	-6798
▁connections	-6799
▁functioning	-6800
▁Policymakers	-6801
▁transforming	-6802
▁liberalization	-6803
va	-6804
ELS	-6805
ald	-6806
eth	-6807
ple	-6808
van	-6809
▁Mo	-6810
▁Ne	-6811
cked	-6812
face	-6813
hani	-6814
life	-6815
omed	-6816
▁Are	-6817
▁Che	-6818
▁Est	-6819
▁fun	-6820
▁mus	-6821
▁pil	-6822
▁pul	-6823
aired	-6824
enses	-6825
ishes	-6826
scape	-6827
▁1950	-6828
▁CEOs	-6829
▁Gene	-6830
▁Gold	-6831
▁None	-6832
▁perv	-6833
elines	-6834
icking	-6835
ighter	-6836
imated	-6837
irable	-6838
▁2013.	-6839
▁McKin	-6840
▁Sudan	-6841
▁dereg	-6842
▁enfor	-6843
▁giant	-6844
▁heads	-6845
▁hydro	-6846
▁imply	-6847
▁index	-6848
▁miles	-6849
▁stagg	-6850
forward	-6851
istical	-6852
▁Associ	-6853
▁Corpor	-6854
▁Refuge	-6855
▁Senate	-6856
▁Spring	-6857
▁acting	-6858
▁belong	-6859
▁convin	-6860
▁driver	-6861
▁raises	-6862
▁ruling	-6863
▁satisf	-6864
▁sheets	-6865
▁worker	-6866
ilibrium	-6867
urisdict	-6868
▁Leaders	-6869
▁alleged	-6870
▁burdens	-6871
▁doubled	-6872
▁intense	-6873
▁picture	-6874
▁plastic	-6875
▁warfare	-6876
▁Progress	-6877
▁abortion	-6878
▁emphasis	-6879
▁original	-6880
▁produces	-6881
▁purposes	-6882
▁resolved	-6883
management	-6884
▁accounted	-6885
▁contained	-6886
▁integrate	-6887
▁interpret	-6888
▁spreading	-6889
development	-6890
▁attempting	-6891
▁diagnostic	-6892
▁guarantees	-6893
▁phenomenon	-6894
▁renewables	-6895
▁confronting	-6896
▁efficiently	-6897
▁protections	-6898
▁interference	-6899
▁manufacturers	-6900
cu	-6901
▁HF	-6902
hart	-6903
ocal	-6904
osen	-6905
tech	-6906
usal	-6907
zing	-6908
▁Her	-6909
▁Rel	-6910
▁eye	-6911
▁haz	-6912
▁hes	-6913
▁mag	-6914
▁map	-6915
▁neo	-6916
ander	-6917
enous	-6918
haust	-6919
ophob	-6920
ourse	-6921
▁Conf	-6922
▁Data	-6923
▁abol	-6924
▁batt	-6925
▁plum	-6926
▁trip	-6927
USSELS	-6928
advant	-6929
ipping	-6930
school	-6931
▁2008.	-6932
▁2050,	-6933
▁Three	-6934
▁auton	-6935
▁chose	-6936
▁earth	-6937
▁farms	-6938
▁gases	-6939
▁grave	-6940
▁match	-6941
▁navig	-6942
▁plays	-6943
▁seeds	-6944
▁ultra	-6945
appoint	-6946
raction	-6947
ulative	-6948
▁Strate	-6949
▁Valley	-6950
▁adding	-6951
▁brutal	-6952
▁famous	-6953
▁habits	-6954
▁manner	-6955
▁remove	-6956
▁spring	-6957
▁Against	-6958
▁Morocco	-6959
▁Twitter	-6960
▁biology	-6961
▁forcing	-6962
▁release	-6963
▁tremend	-6964
▁Chairman	-6965
▁absolute	-6966
▁advocate	-6967
▁claiming	-6968
▁complain	-6969
▁displace	-6970
▁financed	-6971
▁monopoly	-6972
▁observed	-6973
▁optimism	-6974
▁overseas	-6975
▁realized	-6976
▁remember	-6977
▁slightly	-6978
▁Southeast	-6979
▁advancing	-6980
▁disadvant	-6981
▁illnesses	-6982
▁jurisdict	-6983
▁occurring	-6984
▁premature	-6985
▁prolonged	-6986
▁altogether	-6987
▁collection	-6988
▁eliminated	-6989
▁staggering	-6990
▁adjustments	-6991
▁accelerating	-6992
▁overwhelming	-6993
hi	-6994
200	-6995
asp	-6996
bul	-6997
dec	-6998
den	-6999
der	-7000
eft	-7001
pan	-7002
uum	-7003
Russ	-7004
aker	-7005
aunt	-7006
cker	-7007
onym	-7008
orsi	-7009
prot	-7010
rity	-7011
▁Bit	-7012
▁fat	-7013
▁hub	-7014
▁rig	-7015
dated	-7016
iably	-7017
orate	-7018
orrow	-7019
unity	-7020
urric	-7021
▁Road	-7022
▁Year	-7023
▁dark	-7024
▁drag	-7025
▁fake	-7026
▁feas	-7027
▁indu	-7028
▁mism	-7029
▁nurt	-7030
▁prox	-7031
▁puts	-7032
▁reck	-7033
▁trib	-7034
▁wish	-7035
minded	-7036
▁Sunni	-7037
▁align	-7038
▁brief	-7039
▁deval	-7040
▁fluct	-7041
▁fruit	-7042
▁overt	-7043
▁polar	-7044
▁proud	-7045
▁socio	-7046
▁train	-7047
▁Kenned	-7048
▁Others	-7049
▁Unlike	-7050
▁buying	-7051
▁curric	-7052
▁empire	-7053
▁exempl	-7054
▁forget	-7055
▁paraly	-7056
▁regist	-7057
▁unders	-7058
▁Banking	-7059
▁Bitcoin	-7060
▁answers	-7061
▁aspects	-7062
▁feature	-7063
▁immense	-7064
▁periods	-7065
▁restric	-7066
▁smoking	-7067
▁BRUSSELS	-7068
▁McKinsey	-7069
▁constant	-7070
▁dynamics	-7071
▁endorsed	-7072
▁inspired	-7073
▁machines	-7074
▁mobilize	-7075
▁numerous	-7076
▁populism	-7077
▁acknowled	-7078
▁alliances	-7079
▁attitudes	-7080
▁catastrop	-7081
▁channeled	-7082
▁convinced	-7083
▁extremism	-7084
▁involving	-7085
▁obviously	-7086
▁protected	-7087
▁responses	-7088
▁comparison	-7089
▁contradict	-7090
▁generating	-7091
▁responding	-7092
▁equilibrium	-7093
▁rebalancing	-7094
▁specifically	-7095
▁disintegration	-7096
AL	-7097
dge	-7098
new	-7099
zed	-7100
▁(1	-7101
▁Gu	-7102
aise	-7103
atri	-7104
▁Exp	-7105
▁Naz	-7106
▁Rec	-7107
▁San	-7108
▁ang	-7109
▁aqu	-7110
▁cry	-7111
▁raw	-7112
ifies	-7113
▁2005	-7114
▁Post	-7115
▁Stud	-7116
▁card	-7117
▁cast	-7118
▁cron	-7119
▁fill	-7120
▁inex	-7121
▁jour	-7122
▁pret	-7123
▁roll	-7124
iously	-7125
manuel	-7126
▁Earth	-7127
▁Morsi	-7128
▁Peace	-7129
▁brand	-7130
▁brink	-7131
▁coinc	-7132
▁consp	-7133
▁harsh	-7134
▁links	-7135
▁notes	-7136
▁roles	-7137
▁stark	-7138
▁surge	-7139
arshall	-7140
▁agency	-7141
▁fortun	-7142
cription	-7143
ourished	-7144
▁Journal	-7145
▁Kennedy	-7146
▁ancient	-7147
▁assault	-7148
▁distant	-7149
▁extract	-7150
▁fashion	-7151
▁harness	-7152
▁methane	-7153
▁plummet	-7154
▁ratings	-7155
▁rightly	-7156
▁written	-7157
▁Southern	-7158
▁believes	-7159
▁directed	-7160
▁fraction	-7161
▁frequent	-7162
▁implicit	-7163
▁location	-7164
▁shortage	-7165
▁upcoming	-7166
▁Otherwise	-7167
▁initially	-7168
▁negotiate	-7169
▁oversight	-7170
▁regularly	-7171
▁reluctant	-7172
▁stabilize	-7173
▁surpluses	-7174
▁adaptation	-7175
▁antibiotic	-7176
▁creativity	-7177
▁journalist	-7178
▁presidents	-7179
▁reductions	-7180
▁reinforced	-7181
▁tremendous	-7182
▁exacerbated	-7183
▁interdepend	-7184
▁deleveraging	-7185
▁marginalized	-7186
▁privatization	-7187
▁environmentally	-7188
60	-7189
EU	-7190
IR	-7191
cor	-7192
lor	-7193
neg	-7194
occ	-7195
thy	-7196
unk	-7197
▁Do	-7198
▁Op	-7199
fold	-7200
rand	-7201
well	-7202
▁Pre	-7203
▁Sal	-7204
▁Too	-7205
▁Wat	-7206
▁ast	-7207
▁fit	-7208
▁scr	-7209
artis	-7210
eterm	-7211
ician	-7212
orted	-7213
▁Coop	-7214
▁Decl	-7215
▁Yanu	-7216
▁cate	-7217
▁edge	-7218
▁hero	-7219
▁nutr	-7220
▁olig	-7221
▁pump	-7222
▁quot	-7223
▁suit	-7224
alling	-7225
estern	-7226
iction	-7227
inians	-7228
kovych	-7229
weight	-7230
▁2001,	-7231
▁Never	-7232
▁arbit	-7233
▁arise	-7234
▁aware	-7235
▁bench	-7236
▁cloud	-7237
▁doctr	-7238
▁frust	-7239
▁north	-7240
▁novel	-7241
▁seize	-7242
▁stret	-7243
▁teams	-7244
▁waves	-7245
igorous	-7246
iration	-7247
ometers	-7248
▁Action	-7249
▁Author	-7250
▁System	-7251
▁adoles	-7252
▁grants	-7253
▁lifest	-7254
▁notion	-7255
▁pestic	-7256
▁pledge	-7257
▁remitt	-7258
▁stocks	-7259
▁voting	-7260
▁weapon	-7261
▁Digital	-7262
▁Georgia	-7263
▁arrived	-7264
▁contact	-7265
▁dealing	-7266
▁dismiss	-7267
▁nominal	-7268
▁pricing	-7269
▁reserve	-7270
▁scrutin	-7271
▁Emerging	-7272
▁Malaysia	-7273
▁enduring	-7274
▁governor	-7275
▁invasion	-7276
▁occasion	-7277
▁striking	-7278
▁Communist	-7279
▁dominance	-7280
▁operation	-7281
▁successes	-7282
▁workplace	-7283
▁Yanukovych	-7284
▁allocation	-7285
▁challenged	-7286
▁comparable	-7287
▁electronic	-7288
▁highlights	-7289
▁violations	-7290
▁Association	-7291
▁nonetheless	-7292
▁surrounding	-7293
▁announcement	-7294
▁applications	-7295
▁depreciation	-7296
UN	-7297
VA	-7298
ek	-7299
sm	-7300
akh	-7301
ein	-7302
imb	-7303
rov	-7304
tor	-7305
▁27	-7306
athy	-7307
even	-7308
iful	-7309
lish	-7310
room	-7311
soft	-7312
▁Mel	-7313
▁Out	-7314
▁Pik	-7315
▁alc	-7316
▁eat	-7317
front	-7318
inter	-7319
istry	-7320
oples	-7321
▁Rich	-7322
▁ally	-7323
▁code	-7324
▁unle	-7325
active	-7326
tering	-7327
▁2005,	-7328
▁Regul	-7329
▁bills	-7330
▁blind	-7331
▁breed	-7332
▁deleg	-7333
▁dying	-7334
▁finds	-7335
▁indig	-7336
▁stood	-7337
▁tends	-7338
▁unequ	-7339
▁voted	-7340
ervical	-7341
largest	-7342
roughts	-7343
urrency	-7344
▁agents	-7345
▁bridge	-7346
▁immune	-7347
▁richer	-7348
▁rooted	-7349
▁taught	-7350
▁volume	-7351
building	-7352
friendly	-7353
iversary	-7354
▁Francis	-7355
▁Gazprom	-7356
▁Piketty	-7357
▁Project	-7358
▁backing	-7359
▁debates	-7360
▁devoted	-7361
▁discont	-7362
▁erupted	-7363
▁exhaust	-7364
▁justify	-7365
▁separat	-7366
▁shaping	-7367
▁Marshall	-7368
▁actively	-7369
▁creditor	-7370
▁detailed	-7371
▁document	-7372
▁dominate	-7373
▁embraced	-7374
▁employed	-7375
▁entering	-7376
▁equipped	-7377
▁famously	-7378
▁indirect	-7379
▁literacy	-7380
▁minimize	-7381
▁recorded	-7382
▁republic	-7383
▁Represent	-7384
▁alongside	-7385
▁epidemics	-7386
▁favorable	-7387
▁intention	-7388
▁landscape	-7389
▁naturally	-7390
▁components	-7391
▁discipline	-7392
▁prevailing	-7393
▁undermined	-7394
▁anniversary	-7395
▁destructive	-7396
▁differently	-7397
▁introduction	-7398
▁straightforward	-7399
FOR	-7400
ils	-7401
umn	-7402
vey	-7403
yan	-7404
▁Ed	-7405
AVEN	-7406
aczy	-7407
anth	-7408
ione	-7409
oked	-7410
ptoc	-7411
ragh	-7412
▁300	-7413
▁Jin	-7414
▁SDG	-7415
▁ran	-7416
▁tab	-7417
▁tit	-7418
-2015	-7419
grids	-7420
henko	-7421
iders	-7422
ierra	-7423
igare	-7424
inked	-7425
organ	-7426
think	-7427
utral	-7428
▁Five	-7429
▁Mich	-7430
▁aver	-7431
▁cens	-7432
▁depr	-7433
▁enro	-7434
▁erod	-7435
▁lawy	-7436
▁pill	-7437
▁sect	-7438
▁spot	-7439
▁unst	-7440
engine	-7441
estate	-7442
estock	-7443
wealth	-7444
▁Fried	-7445
▁HAVEN	-7446
▁Kaczy	-7447
▁Leone	-7448
▁Somet	-7449
▁abund	-7450
▁gross	-7451
▁hedge	-7452
▁hyper	-7453
▁pound	-7454
▁remed	-7455
▁revel	-7456
▁zones	-7457
acteria	-7458
iencies	-7459
reaking	-7460
▁Sierra	-7461
▁attain	-7462
▁bright	-7463
▁detect	-7464
▁doctor	-7465
▁inward	-7466
▁lowest	-7467
▁replic	-7468
▁select	-7469
▁serves	-7470
▁slowed	-7471
▁strict	-7472
▁window	-7473
▁100,000	-7474
▁Jinping	-7475
▁Markets	-7476
▁credits	-7477
▁locally	-7478
▁migrant	-7479
▁paralle	-7480
▁profess	-7481
▁pursuit	-7482
▁reading	-7483
▁solving	-7484
▁surpass	-7485
▁avoiding	-7486
▁chairman	-7487
▁coherent	-7488
▁comprise	-7489
▁imported	-7490
▁involves	-7491
▁lowering	-7492
▁missiles	-7493
▁regulate	-7494
▁scholars	-7495
▁settings	-7496
▁software	-7497
▁tackling	-7498
▁tomorrow	-7499
▁Peninsula	-7500
▁addresses	-7501
▁concerted	-7502
▁diagnosis	-7503
▁graduates	-7504
▁indicator	-7505
▁justified	-7506
▁livestock	-7507
▁marketing	-7508
▁principal	-7509
▁realistic	-7510
▁definition	-7511
▁disappoint	-7512
▁indigenous	-7513
▁newspapers	-7514
▁suggesting	-7515
▁supposedly	-7516
▁withdrawal	-7517
▁disparities	-7518
▁exceptional	-7519
▁unnecessary	-7520
▁modernization	-7521
▁Infrastructure	-7522
-3	-7523
BA	-7524
BU	-7525
NA	-7526
300	-7527
GBT	-7528
aba	-7529
ago	-7530
col	-7531
epr	-7532
irm	-7533
mat	-7534
▁6%	-7535
▁6.	-7536
▁7%	-7537
▁ca	-7538
adly	-7539
iced	-7540
icit	-7541
iump	-7542
ooth	-7543
ords	-7544
quir	-7545
unch	-7546
▁Aff	-7547
▁Hit	-7548
▁Kaz	-7549
▁Let	-7550
▁Tax	-7551
▁tap	-7552
▁upg	-7553
▁yes	-7554
liers	-7555
phone	-7556
produ	-7557
▁Care	-7558
▁Mont	-7559
▁News	-7560
▁Rein	-7561
▁blam	-7562
▁outl	-7563
▁pays	-7564
▁phot	-7565
▁ramp	-7566
▁reap	-7567
▁sees	-7568
▁uphe	-7569
backed	-7570
gorith	-7571
ispens	-7572
thodox	-7573
▁Exper	-7574
▁Stand	-7575
▁genes	-7576
▁lifet	-7577
▁lived	-7578
▁misle	-7579
▁owned	-7580
▁sight	-7581
▁topic	-7582
▁trees	-7583
ropical	-7584
▁Common	-7585
▁Future	-7586
▁deploy	-7587
▁friend	-7588
▁robots	-7589
▁troika	-7590
▁vacuum	-7591
▁Silicon	-7592
▁authors	-7593
▁chances	-7594
▁joining	-7595
▁tactics	-7596
▁Emmanuel	-7597
▁Whatever	-7598
▁appeared	-7599
▁arguably	-7600
▁cervical	-7601
▁channels	-7602
▁civilian	-7603
▁deployed	-7604
▁droughts	-7605
▁enhanced	-7606
▁explains	-7607
▁familiar	-7608
▁guidance	-7609
▁indicate	-7610
▁pipeline	-7611
▁stemming	-7612
▁treating	-7613
▁Authority	-7614
▁competing	-7615
▁completed	-7616
▁dedicated	-7617
▁destroyed	-7618
▁embracing	-7619
▁populists	-7620
▁preparing	-7621
▁suppliers	-7622
▁unwilling	-7623
▁Developing	-7624
▁Protection	-7625
▁acceptable	-7626
▁complexity	-7627
▁deterrence	-7628
▁disastrous	-7629
▁exacerbate	-7630
▁explicitly	-7631
▁harassment	-7632
▁kilometers	-7633
▁punishment	-7634
▁terrorists	-7635
▁tightening	-7636
▁declaration	-7637
▁distributed	-7638
▁inefficient	-7639
▁influential	-7640
▁operational	-7641
▁telecommunic	-7642
▁internationally	-7643
▁representatives	-7644
-7	-7645
80	-7646
BI	-7647
EA	-7648
ED	-7649
EY	-7650
Th	-7651
WI	-7652
aks	-7653
cel	-7654
des	-7655
eda	-7656
imm	-7657
sum	-7658
▁5.	-7659
SDGs	-7660
irus	-7661
litz	-7662
orce	-7663
outs	-7664
such	-7665
▁Bur	-7666
▁Dub	-7667
▁Jer	-7668
▁Oil	-7669
▁Ren	-7670
▁Row	-7671
▁cab	-7672
▁dub	-7673
▁gay	-7674
eline	-7675
ollah	-7676
otten	-7677
trans	-7678
under	-7679
▁2003	-7680
▁Jose	-7681
▁Shia	-7682
▁Snow	-7683
▁bloc	-7684
▁halt	-7685
▁luck	-7686
▁nurs	-7687
▁star	-7688
▁vide	-7689
incing	-7690
redict	-7691
urable	-7692
▁Davos	-7693
▁Dragh	-7694
▁deriv	-7695
▁effic	-7696
▁entit	-7697
▁fifth	-7698
▁happy	-7699
▁irrig	-7700
▁safer	-7701
anthrop	-7702
renched	-7703
russels	-7704
▁Hitler	-7705
▁chosen	-7706
▁condem	-7707
▁doubts	-7708
▁honest	-7709
▁stakes	-7710
▁string	-7711
▁triump	-7712
ceptions	-7713
emporary	-7714
ognitive	-7715
ollowing	-7716
▁Johnson	-7717
▁beliefs	-7718
▁combine	-7719
▁dignity	-7720
▁enemies	-7721
▁entails	-7722
▁feeling	-7723
▁granted	-7724
▁malaise	-7725
▁rebuild	-7726
▁schemes	-7727
▁serving	-7728
▁spectac	-7729
▁strains	-7730
▁strikes	-7731
▁waiting	-7732
stitution	-7733
▁Together	-7734
▁bacteria	-7735
▁disorder	-7736
▁distinct	-7737
▁distingu	-7738
▁doctrine	-7739
▁excluded	-7740
▁feasible	-7741
▁implying	-7742
▁insights	-7743
▁isolated	-7744
▁superior	-7745
ispensable	-7746
performing	-7747
▁collapsed	-7748
▁deepening	-7749
▁portfolio	-7750
▁sectarian	-7751
▁strongest	-7752
▁translate	-7753
▁adequately	-7754
▁aggression	-7755
▁deployment	-7756
▁discovered	-7757
▁undermines	-7758
▁weaknesses	-7759
▁Declaration	-7760
▁arrangement	-7761
▁constrained	-7762
▁exclusively	-7763
▁existential	-7764
▁financially	-7765
▁sufficiently	-7766
▁concentration	-7767
▁congressional	-7768
▁interconnected	-7769
IA	-7770
PV	-7771
SE	-7772
ny	-7773
ael	-7774
exp	-7775
gue	-7776
odd	-7777
ois	-7778
uls	-7779
vak	-7780
▁26	-7781
▁8%	-7782
▁Cz	-7783
▁GM	-7784
▁La	-7785
case	-7786
cher	-7787
imal	-7788
need	-7789
ohol	-7790
okia	-7791
olly	-7792
omin	-7793
ship	-7794
▁Ecu	-7795
▁Equ	-7796
enced	-7797
icide	-7798
olved	-7799
shore	-7800
▁Bund	-7801
▁Char	-7802
▁Debt	-7803
▁Jews	-7804
▁Mark	-7805
▁hung	-7806
▁prag	-7807
▁pull	-7808
▁rock	-7809
accept	-7810
atural	-7811
growth	-7812
iglitz	-7813
ocrats	-7814
▁2007,	-7815
▁2017.	-7816
▁Apple	-7817
▁Niger	-7818
▁Nokia	-7819
▁Using	-7820
▁consc	-7821
▁drawn	-7822
▁grasp	-7823
▁haven	-7824
▁image	-7825
▁manif	-7826
▁ought	-7827
▁repay	-7828
▁resur	-7829
▁valid	-7830
▁veget	-7831
aughter	-7832
eltdown	-7833
finance	-7834
imately	-7835
iversal	-7836
quarter	-7837
▁Around	-7838
▁Kazakh	-7839
▁Polish	-7840
▁Summit	-7841
▁Thanks	-7842
▁advent	-7843
▁assass	-7844
▁caught	-7845
▁contag	-7846
▁floods	-7847
▁margin	-7848
▁openly	-7849
▁precip	-7850
▁presum	-7851
▁regain	-7852
▁resent	-7853
▁tested	-7854
▁united	-7855
affected	-7856
▁Capital	-7857
▁Ecuador	-7858
▁Hillary	-7859
▁arguing	-7860
▁assumes	-7861
▁ceiling	-7862
▁charges	-7863
▁drawing	-7864
▁issuing	-7865
▁richest	-7866
▁shifted	-7867
▁traject	-7868
▁attitude	-7869
▁autonomy	-7870
▁inherent	-7871
▁judgment	-7872
▁lifetime	-7873
▁meantime	-7874
▁oligarch	-7875
▁proclaim	-7876
▁unstable	-7877
▁worrying	-7878
▁confirmed	-7879
▁disappear	-7880
▁integrity	-7881
▁intensify	-7882
▁magnitude	-7883
▁recovered	-7884
▁responded	-7885
▁comprising	-7886
▁discourage	-7887
▁negotiated	-7888
▁peripheral	-7889
▁procedures	-7890
▁profitable	-7891
▁containment	-7892
▁desperately	-7893
▁facilitating	-7894
▁destabilizing	-7895
12	-7896
7.	-7897
If	-7898
ky	-7899
yc	-7900
zi	-7901
agu	-7902
ani	-7903
avi	-7904
eff	-7905
emi	-7906
kin	-7907
uzz	-7908
▁CH	-7909
▁CP	-7910
avor	-7911
beit	-7912
cell	-7913
hman	-7914
icul	-7915
ihad	-7916
ilem	-7917
inda	-7918
indu	-7919
irty	-7920
itan	-7921
itis	-7922
left	-7923
offs	-7924
omas	-7925
riad	-7926
sour	-7927
▁Ann	-7928
▁Cor	-7929
▁GCC	-7930
▁Who	-7931
▁bed	-7932
▁ble	-7933
▁fut	-7934
▁gar	-7935
▁hat	-7936
▁lic	-7937
▁los	-7938
▁sug	-7939
-2008	-7940
vered	-7941
▁Cels	-7942
▁Long	-7943
▁Time	-7944
▁cope	-7945
▁eyes	-7946
▁fees	-7947
▁love	-7948
▁odds	-7949
▁peer	-7950
▁pref	-7951
▁rail	-7952
▁rend	-7953
▁vent	-7954
atible	-7955
rators	-7956
reform	-7957
states	-7958
▁2010.	-7959
▁2018,	-7960
▁James	-7961
▁Roman	-7962
▁actor	-7963
▁arrow	-7964
▁enemy	-7965
▁guard	-7966
▁habit	-7967
▁inhab	-7968
▁lever	-7969
▁pilot	-7970
▁skill	-7971
▁stems	-7972
alities	-7973
angible	-7974
aunting	-7975
▁Arctic	-7976
▁Cities	-7977
▁Crisis	-7978
▁Within	-7979
▁analog	-7980
▁analyt	-7981
▁banned	-7982
▁breaks	-7983
▁corner	-7984
▁formed	-7985
▁incumb	-7986
▁inflic	-7987
▁oppose	-7988
▁poison	-7989
▁preval	-7990
▁slower	-7991
▁smooth	-7992
▁tragic	-7993
exchange	-7994
▁Celsius	-7995
▁Disease	-7996
▁English	-7997
▁Melinda	-7998
▁Network	-7999
▁alcohol	-8000
▁breakup	-8001
▁citizen	-8002
▁command	-8003
▁compact	-8004
▁degrees	-8005
▁dismant	-8006
▁environ	-8007
▁evasion	-8008
▁evolved	-8009
▁exploit	-8010
▁fastest	-8011
▁journey	-8012
▁metrics	-8013
▁peoples	-8014
▁possess	-8015
▁regular	-8016
▁rewards	-8017
▁student	-8018
▁telling	-8019
▁urgency	-8020
▁village	-8021
▁younger	-8022
▁Brussels	-8023
▁declines	-8024
▁director	-8025
▁intermed	-8026
▁mutually	-8027
▁nowadays	-8028
▁symptoms	-8029
▁widening	-8030
▁Economics	-8031
▁abandoned	-8032
▁buildings	-8033
▁committee	-8034
▁emotional	-8035
▁enhancing	-8036
▁functions	-8037
▁intervene	-8038
▁schooling	-8039
▁undertake	-8040
▁voluntary	-8041
▁Kazakhstan	-8042
▁entrenched	-8043
▁irrational	-8044
▁preserving	-8045
▁situations	-8046
▁Cooperation	-8047
▁approaching	-8048
▁catastrophe	-8049
▁convergence	-8050
▁dangerously	-8051
▁distortions	-8052
▁identifying	-8053
▁ideological	-8054
▁remittances	-8055
▁displacement	-8056
▁environments	-8057
▁significance	-8058
▁transmission	-8059
▁deforestation	-8060
▁indispensable	-8061
▁psychological	-8062
▁socioeconomic	-8063
▁diversification	-8064
15	-8065
CP	-8066
DR	-8067
It	-8068
Le	-8069
oo	-8070
KEL	-8071
afe	-8072
ali	-8073
amm	-8074
apt	-8075
bod	-8076
iam	-8077
ola	-8078
oot	-8079
▁23	-8080
▁28	-8081
agon	-8082
feed	-8083
ford	-8084
ican	-8085
otal	-8086
▁Den	-8087
▁ODA	-8088
▁Orb	-8089
▁Ser	-8090
▁Slo	-8091
▁arm	-8092
▁bes	-8093
▁bid	-8094
▁ice	-8095
▁seg	-8096
KELEY	-8097
backs	-8098
early	-8099
iants	-8100
iated	-8101
media	-8102
occup	-8103
owing	-8104
reach	-8105
▁Hait	-8106
▁Trad	-8107
▁blow	-8108
▁deny	-8109
▁dose	-8110
▁feat	-8111
▁fish	-8112
▁grim	-8113
▁lobb	-8114
▁pand	-8115
▁sick	-8116
▁stif	-8117
▁toug	-8118
▁unav	-8119
Brexit	-8120
ensity	-8121
invest	-8122
othing	-8123
ulture	-8124
▁2012.	-8125
▁2020,	-8126
▁Catal	-8127
▁Fight	-8128
▁Mario	-8129
▁anger	-8130
▁digit	-8131
▁metap	-8132
▁piece	-8133
▁postp	-8134
▁scarc	-8135
▁trick	-8136
▁upper	-8137
▁upris	-8138
acities	-8139
athered	-8140
▁Berlin	-8141
▁Draghi	-8142
▁Greeks	-8143
▁Greens	-8144
▁Joseph	-8145
▁Lehman	-8146
▁Ronald	-8147
▁approx	-8148
▁arrest	-8149
▁estate	-8150
▁inject	-8151
▁memory	-8152
▁occurs	-8153
▁patent	-8154
▁relies	-8155
▁sounds	-8156
▁voices	-8157
porarily	-8158
▁Private	-8159
▁Rowhani	-8160
▁acquire	-8161
▁article	-8162
▁coastal	-8163
▁express	-8164
▁gradual	-8165
▁infants	-8166
▁inspire	-8167
▁notable	-8168
▁removed	-8169
▁revival	-8170
▁tempted	-8171
▁triumph	-8172
▁vicious	-8173
▁BERKELEY	-8174
▁Stiglitz	-8175
▁advisers	-8176
▁colonial	-8177
▁convince	-8178
▁daunting	-8179
▁disagree	-8180
▁division	-8181
▁flooding	-8182
▁generous	-8183
▁hegemony	-8184
▁liberals	-8185
▁obstacle	-8186
▁treaties	-8187
▁Abenomics	-8188
▁Community	-8189
▁cooperate	-8190
▁forgotten	-8191
▁mortgages	-8192
▁overwhelm	-8193
▁routinely	-8194
▁Innovation	-8195
▁Throughout	-8196
▁beneficial	-8197
▁commentary	-8198
▁convincing	-8199
▁discontent	-8200
▁psychology	-8201
▁accelerated	-8202
▁aspirations	-8203
▁underpinned	-8204
▁Specifically	-8205
▁deregulation	-8206
▁entrepreneur	-8207
▁manipulation	-8208
▁Globalization	-8209
▁consideration	-8210
▁participating	-8211
45	-8212
HA	-8213
We	-8214
za	-8215
400	-8216
ENE	-8217
cra	-8218
iev	-8219
ikh	-8220
ogg	-8221
oul	-8222
ums	-8223
▁NT	-8224
▁ho	-8225
FORD	-8226
aton	-8227
azon	-8228
step	-8229
uepr	-8230
writ	-8231
▁Nam	-8232
▁Vik	-8233
▁dys	-8234
▁hom	-8235
▁isn	-8236
▁lux	-8237
▁pet	-8238
▁rot	-8239
▁twe	-8240
ENEVA	-8241
edded	-8242
elect	-8243
ormal	-8244
oston	-8245
uated	-8246
utive	-8247
world	-8248
▁2004	-8249
▁Fisc	-8250
▁Fran	-8251
▁Gavi	-8252
▁LGBT	-8253
▁amid	-8254
▁curb	-8255
▁edit	-8256
▁flag	-8257
▁hate	-8258
▁mood	-8259
▁neol	-8260
▁pock	-8261
▁symp	-8262
▁unus	-8263
▁vice	-8264
ounced	-8265
ttoman	-8266
▁1990’	-8267
▁Alexe	-8268
▁Medic	-8269
▁Micro	-8270
▁admit	-8271
▁broke	-8272
▁camps	-8273
▁categ	-8274
▁entry	-8275
▁falls	-8276
▁horiz	-8277
▁pione	-8278
▁reaff	-8279
▁route	-8280
▁shame	-8281
▁sheet	-8282
comings	-8283
respons	-8284
viously	-8285
▁Better	-8286
▁Boston	-8287
▁Fourth	-8288
▁Having	-8289
▁Marine	-8290
▁Review	-8291
▁Viktor	-8292
▁asking	-8293
▁distur	-8294
▁electr	-8295
▁exists	-8296
▁firmly	-8297
▁infant	-8298
▁injust	-8299
▁letter	-8300
▁libert	-8301
▁notice	-8302
▁resort	-8303
▁revive	-8304
▁shaped	-8305
▁starts	-8306
▁stockp	-8307
▁storms	-8308
▁strain	-8309
▁vested	-8310
▁wasted	-8311
▁yellow	-8312
▁Between	-8313
▁Fischer	-8314
▁Several	-8315
▁Whereas	-8316
▁consume	-8317
▁corresp	-8318
▁educate	-8319
▁implied	-8320
▁lacking	-8321
▁looming	-8322
▁nations	-8323
▁neglect	-8324
▁nowhere	-8325
▁optimal	-8326
▁privile	-8327
▁procure	-8328
▁soaring	-8329
kepticism	-8330
▁Brothers	-8331
▁Children	-8332
▁Independ	-8333
▁Reinhart	-8334
▁algorith	-8335
▁benefici	-8336
▁consumed	-8337
▁entities	-8338
▁feedback	-8339
▁imprison	-8340
▁informed	-8341
▁interact	-8342
▁meltdown	-8343
▁planners	-8344
▁volatile	-8345
▁Companies	-8346
▁Hungarian	-8347
▁attempted	-8348
▁breakdown	-8349
▁emphasize	-8350
▁empowered	-8351
▁generates	-8352
▁happiness	-8353
▁pervasive	-8354
▁struggles	-8355
engineering	-8356
▁Technology	-8357
▁electorate	-8358
▁guidelines	-8359
▁misleading	-8360
▁monopolies	-8361
▁narratives	-8362
▁recessions	-8363
▁retirement	-8364
▁cooperative	-8365
▁dysfunction	-8366
▁empowerment	-8367
▁exemplified	-8368
▁foreseeable	-8369
▁highlighted	-8370
▁legislative	-8371
▁philanthrop	-8372
▁problematic	-8373
▁Palestinians	-8374
▁compensation	-8375
▁inequalities	-8376
▁shortcomings	-8377
▁revolutionary	-8378
▁considerations	-8379
▁disinformation	-8380
▁redistribution	-8381
▁recommendations	-8382
-8	-8383
Af	-8384
BR	-8385
BS	-8386
PM	-8387
YO	-8388
oe	-8389
ONG	-8390
lav	-8391
nel	-8392
oup	-8393
sur	-8394
ths	-8395
udd	-8396
▁(“	-8397
atar	-8398
atch	-8399
drop	-8400
iary	-8401
oken	-8402
owed	-8403
pace	-8404
prus	-8405
spec	-8406
stic	-8407
▁Cub	-8408
▁HPV	-8409
▁Ice	-8410
▁Lab	-8411
▁Nov	-8412
▁Vol	-8413
▁bus	-8414
▁fro	-8415
▁son	-8416
▁vit	-8417
arios	-8418
arked	-8419
bonds	-8420
ellen	-8421
fully	-8422
itzer	-8423
urate	-8424
▁Real	-8425
▁Shin	-8426
▁aged	-8427
▁agro	-8428
▁baby	-8429
▁beat	-8430
▁bust	-8431
▁deem	-8432
▁plag	-8433
▁prud	-8434
▁rain	-8435
▁sake	-8436
▁site	-8437
▁ster	-8438
cially	-8439
ocracy	-8440
▁1,000	-8441
▁BRICS	-8442
▁Delhi	-8443
▁Dubai	-8444
▁Namib	-8445
▁Worse	-8446
▁breat	-8447
▁cells	-8448
▁diets	-8449
▁grows	-8450
▁hesit	-8451
▁nicot	-8452
▁paths	-8453
▁radio	-8454
▁stunt	-8455
limited	-8456
ophobia	-8457
version	-8458
▁Across	-8459
▁Empire	-8460
▁GENEVA	-8461
▁Geneva	-8462
▁Reform	-8463
▁Thomas	-8464
▁begins	-8465
▁circle	-8466
▁cycles	-8467
▁debtor	-8468
▁denied	-8469
▁filled	-8470
▁orders	-8471
▁prompt	-8472
▁repeat	-8473
▁rescue	-8474
▁seeing	-8475
▁soared	-8476
▁upward	-8477
▁worsen	-8478
resource	-8479
▁Earlier	-8480
▁Finland	-8481
▁Freedom	-8482
▁Increas	-8483
▁Service	-8484
▁Summers	-8485
▁accused	-8486
▁cleaner	-8487
▁complac	-8488
▁debtors	-8489
▁deliber	-8490
▁disclos	-8491
▁display	-8492
▁factory	-8493
▁founded	-8494
▁minutes	-8495
▁somehow	-8496
▁spreads	-8497
▁surveys	-8498
▁suspect	-8499
▁visited	-8500
▁winning	-8501
efficient	-8502
financial	-8503
struction	-8504
▁Thatcher	-8505
▁accident	-8506
▁alarming	-8507
▁balances	-8508
▁carrying	-8509
▁describe	-8510
▁efficacy	-8511
▁eventual	-8512
▁facility	-8513
▁frontier	-8514
▁holdings	-8515
▁impunity	-8516
▁innovate	-8517
▁nicotine	-8518
▁openness	-8519
▁receives	-8520
▁removing	-8521
▁scarcity	-8522
▁steadily	-8523
▁teaching	-8524
▁unaccept	-8525
▁villages	-8526
▁Financing	-8527
▁Following	-8528
▁assessing	-8529
▁evolution	-8530
▁explained	-8531
▁genuinely	-8532
▁inability	-8533
▁indicates	-8534
▁measuring	-8535
▁pregnancy	-8536
▁scenarios	-8537
▁synthetic	-8538
▁trillions	-8539
▁unpredict	-8540
▁attracting	-8541
▁censorship	-8542
▁compliance	-8543
▁difficulty	-8544
▁escalating	-8545
▁expression	-8546
▁likelihood	-8547
▁mitigation	-8548
▁popularity	-8549
▁reflecting	-8550
▁trajectory	-8551
▁vaccinated	-8552
▁Agriculture	-8553
▁diminishing	-8554
▁negotiation	-8555
▁recommended	-8556
▁temporarily	-8557
▁civilization	-8558
▁collectively	-8559
▁constructive	-8560
▁difficulties	-8561
▁exploitation	-8562
▁demonstrating	-8563
▁determination	-8564
▁profitability	-8565
▁protectionist	-8566
▁uncertainties	-8567
▁characteristics	-8568
LE	-8569
OC	-8570
hr	-8571
”)	-8572
EDD	-8573
RID	-8574
eas	-8575
esh	-8576
jud	-8577
lls	-8578
sen	-8579
▁7.	-8580
▁9%	-8581
▁Lo	-8582
▁Up	-8583
▁Ur	-8584
aeda	-8585
aste	-8586
gers	-8587
iors	-8588
ixon	-8589
uert	-8590
▁75%	-8591
▁Bot	-8592
▁Moz	-8593
▁aug	-8594
▁geo	-8595
added	-8596
birth	-8597
endas	-8598
essim	-8599
ester	-8600
field	-8601
night	-8602
quiry	-8603
ropri	-8604
start	-8605
uinea	-8606
value	-8607
▁Balk	-8608
▁Dire	-8609
▁Modi	-8610
▁acts	-8611
▁auto	-8612
▁boys	-8613
▁cool	-8614
▁elev	-8615
▁fool	-8616
▁jump	-8617
▁kick	-8618
▁milk	-8619
▁plun	-8620
▁tear	-8621
▁unil	-8622
▁user	-8623
Soviet	-8624
ancies	-8625
funded	-8626
orough	-8627
▁2003,	-8628
▁2006,	-8629
▁2011.	-8630
▁Nixon	-8631
▁Prize	-8632
▁Shell	-8633
▁Sykes	-8634
▁angry	-8635
▁avert	-8636
▁dilem	-8637
▁error	-8638
▁fatal	-8639
▁insol	-8640
▁jihad	-8641
▁loose	-8642
▁plaus	-8643
▁river	-8644
▁steep	-8645
▁teach	-8646
atories	-8647
uration	-8648
▁Cyprus	-8649
▁Labour	-8650
▁Nature	-8651
▁Yellen	-8652
▁anonym	-8653
▁bluepr	-8654
▁entail	-8655
▁fairly	-8656
▁feared	-8657
▁impede	-8658
▁luxury	-8659
▁median	-8660
▁orient	-8661
▁parity	-8662
▁refuse	-8663
▁reveal	-8664
▁spaces	-8665
▁square	-8666
▁surrog	-8667
▁vastly	-8668
aterally	-8669
chnology	-8670
▁Current	-8671
▁History	-8672
▁Poverty	-8673
▁Switzer	-8674
▁agendas	-8675
▁applies	-8676
▁cabinet	-8677
▁covered	-8678
▁divorce	-8679
▁inherit	-8680
▁multipl	-8681
▁neutral	-8682
▁patents	-8683
▁ranging	-8684
▁records	-8685
▁spurred	-8686
▁surface	-8687
▁unequal	-8688
developed	-8689
mentation	-8690
▁breaking	-8691
▁confined	-8692
▁criteria	-8693
▁discount	-8694
▁distance	-8695
▁dynamism	-8696
▁enforced	-8697
▁gridlock	-8698
▁improves	-8699
▁offshore	-8700
▁persuade	-8701
▁reversal	-8702
▁scrutiny	-8703
▁securing	-8704
productive	-8705
▁Christian	-8706
▁accepting	-8707
▁cognitive	-8708
▁decentral	-8709
▁defending	-8710
▁desirable	-8711
▁dividends	-8712
▁followers	-8713
▁literally	-8714
▁philosoph	-8715
▁resistant	-8716
▁reversing	-8717
functioning	-8718
▁bargaining	-8719
▁compensate	-8720
▁confronted	-8721
▁geographic	-8722
▁heightened	-8723
▁obligation	-8724
▁protesters	-8725
▁Corporation	-8726
▁Switzerland	-8727
▁anticipated	-8728
▁controlling	-8729
▁derivatives	-8730
▁restructure	-8731
▁transaction	-8732
▁Conservative	-8733
▁connectivity	-8734
▁demonstrates	-8735
▁unilaterally	-8736
▁Environmental	-8737
▁approximately	-8738
▁administrative	-8739
▁representative	-8740
CA	-8741
DB	-8742
bes	-8743
ebt	-8744
rav	-8745
ros	-8746
usk	-8747
voc	-8748
▁na	-8749
▁sn	-8750
ICEF	-8751
SEAN	-8752
anes	-8753
aron	-8754
cend	-8755
eful	-8756
egal	-8757
enko	-8758
flow	-8759
orse	-8760
wage	-8761
wind	-8762
▁35%	-8763
▁Abd	-8764
▁Age	-8765
▁Bor	-8766
▁Nic	-8767
▁PRI	-8768
▁Rem	-8769
▁Tal	-8770
▁Tay	-8771
▁Ter	-8772
▁cas	-8773
▁cum	-8774
▁fan	-8775
▁glo	-8776
▁ost	-8777
▁pra	-8778
▁sky	-8779
Picot	-8780
archy	-8781
eting	-8782
grown	-8783
hemat	-8784
hesis	-8785
iracy	-8786
oline	-8787
ramew	-8788
rogen	-8789
roika	-8790
rooms	-8791
▁2006	-8792
▁Poor	-8793
▁aren	-8794
▁bias	-8795
▁bulk	-8796
▁cert	-8797
▁dies	-8798
▁ende	-8799
▁leng	-8800
▁midw	-8801
▁nets	-8802
▁poly	-8803
▁rice	-8804
▁tort	-8805
▁wall	-8806
▁webs	-8807
arhead	-8808
arians	-8809
lusive	-8810
taking	-8811
uality	-8812
uating	-8813
▁ASEAN	-8814
▁Austr	-8815
▁Impro	-8816
▁coerc	-8817
▁craft	-8818
▁lobby	-8819
▁patri	-8820
▁quiet	-8821
▁spike	-8822
▁split	-8823
▁trump	-8824
funding	-8825
looking	-8826
product	-8827
▁Agenda	-8828
▁Almost	-8829
▁Guinea	-8830
▁Mechan	-8831
▁Nearly	-8832
▁anemic	-8833
▁behalf	-8834
▁buyers	-8835
▁exempt	-8836
▁giants	-8837
▁hidden	-8838
▁hungry	-8839
▁lifted	-8840
▁losers	-8841
▁master	-8842
▁namely	-8843
▁oceans	-8844
▁permit	-8845
▁safely	-8846
▁timing	-8847
▁topics	-8848
breaking	-8849
election	-8850
lessness	-8851
ologists	-8852
urricane	-8853
▁Holland	-8854
▁Michael	-8855
▁Ottoman	-8856
▁blocked	-8857
▁classic	-8858
▁compare	-8859
▁dissent	-8860
▁endless	-8861
▁enjoyed	-8862
▁exchang	-8863
▁fertile	-8864
▁landing	-8865
▁lenders	-8866
▁minimal	-8867
▁rampant	-8868
▁reaches	-8869
▁recruit	-8870
▁tourism	-8871
▁writing	-8872
istically	-8873
▁Director	-8874
▁Governor	-8875
▁acquired	-8876
▁applying	-8877
▁enthusia	-8878
▁fairness	-8879
▁formally	-8880
▁gathered	-8881
▁imperial	-8882
▁mounting	-8883
▁promoted	-8884
▁rigorous	-8885
▁tangible	-8886
▁thorough	-8887
▁troubled	-8888
▁wherever	-8889
▁wildlife	-8890
employment	-8891
especially	-8892
▁appealing	-8893
▁describes	-8894
▁exceeding	-8895
▁existence	-8896
▁extremist	-8897
▁meanwhile	-8898
▁neglected	-8899
▁permitted	-8900
▁personnel	-8901
▁precedent	-8902
▁secretary	-8903
▁spearhead	-8904
▁acceptance	-8905
▁attraction	-8906
▁benefiting	-8907
▁correspond	-8908
▁escalation	-8909
▁instrument	-8910
▁neoliberal	-8911
▁officially	-8912
▁commodities	-8913
▁comparative	-8914
▁consolidate	-8915
▁forecasting	-8916
▁inspiration	-8917
▁permanently	-8918
▁procurement	-8919
▁reinforcing	-8920
▁represented	-8921
▁achievements	-8922
▁bureaucratic	-8923
▁contemporary	-8924
▁inflationary	-8925
▁controversial	-8926
▁transformative	-8927
”:	-8928
▁x	-8929
aiw	-8930
aug	-8931
awn	-8932
dit	-8933
ini	-8934
oil	-8935
pre	-8936
she	-8937
via	-8938
zen	-8939
▁Gl	-8940
▁Ki	-8941
▁OP	-8942
enry	-8943
hard	-8944
ivil	-8945
oler	-8946
port	-8947
rown	-8948
▁Ban	-8949
▁Dec	-8950
▁Eff	-8951
▁FSB	-8952
▁Few	-8953
▁Lit	-8954
▁Ris	-8955
▁Tob	-8956
▁Val	-8957
▁WWI	-8958
▁Was	-8959
▁cop	-8960
▁ech	-8961
▁gun	-8962
▁kid	-8963
▁sle	-8964
asant	-8965
borne	-8966
ebted	-8967
icing	-8968
itely	-8969
liest	-8970
matic	-8971
ollar	-8972
rable	-8973
ricts	-8974
ronts	-8975
usive	-8976
vakia	-8977
▁2001	-8978
▁Goal	-8979
▁Mass	-8980
▁Nazi	-8981
▁REDD	-8982
▁Resp	-8983
▁Rosn	-8984
▁Sand	-8985
▁Serb	-8986
▁Well	-8987
▁abst	-8988
▁cure	-8989
▁empt	-8990
▁flat	-8991
▁intr	-8992
▁laid	-8993
▁leak	-8994
▁plus	-8995
▁pron	-8996
▁shot	-8997
▁succ	-8998
▁teen	-8999
▁tide	-9000
▁vari	-9001
arious	-9002
astics	-9003
decade	-9004
esbank	-9005
irates	-9006
isting	-9007
▁Chief	-9008
▁Elect	-9009
▁Labor	-9010
▁Panel	-9011
▁appet	-9012
▁cliff	-9013
▁feels	-9014
▁flour	-9015
▁incur	-9016
▁panic	-9017
▁param	-9018
▁pride	-9019
▁rally	-9020
▁sheer	-9021
▁slump	-9022
defense	-9023
ologies	-9024
oshenko	-9025
reating	-9026
tenance	-9027
theless	-9028
▁Amazon	-9029
▁Contro	-9030
▁Framew	-9031
▁Shinzo	-9032
▁UNICEF	-9033
▁acquis	-9034
▁babies	-9035
▁blamed	-9036
▁crimes	-9037
▁differ	-9038
▁entity	-9039
▁explos	-9040
▁footpr	-9041
▁hoping	-9042
▁induce	-9043
▁influx	-9044
▁inside	-9045
▁persec	-9046
▁pessim	-9047
▁pollut	-9048
▁reserv	-9049
▁steady	-9050
▁tenure	-9051
currency	-9052
entially	-9053
▁Eurasia	-9054
▁Namibia	-9055
▁Rosneft	-9056
▁confirm	-9057
▁favored	-9058
▁illicit	-9059
▁inhabit	-9060
▁insight	-9061
▁measles	-9062
▁newborn	-9063
▁placing	-9064
▁portray	-9065
▁rethink	-9066
▁silence	-9067
▁talents	-9068
▁therapy	-9069
insurance	-9070
▁2008-200	-9071
▁Ministry	-9072
▁Protocol	-9073
▁activist	-9074
▁decrease	-9075
▁defining	-9076
▁demanded	-9077
▁distress	-9078
▁friendly	-9079
▁graduate	-9080
▁judicial	-9081
▁ministry	-9082
▁operated	-9083
▁overhaul	-9084
▁predomin	-9085
▁reconcil	-9086
▁revision	-9087
▁warnings	-9088
▁Eurobonds	-9089
▁Greenspan	-9090
▁attracted	-9091
▁blueprint	-9092
▁budgetary	-9093
▁engineers	-9094
▁factories	-9095
▁fertility	-9096
▁fragility	-9097
▁headlines	-9098
▁offensive	-9099
▁qualified	-9100
▁regulated	-9101
▁rejection	-9102
▁varieties	-9103
▁Australian	-9104
▁collateral	-9105
▁coordinate	-9106
▁criticized	-9107
▁emphasizes	-9108
▁encourages	-9109
▁innovators	-9110
▁mobilizing	-9111
▁overlooked	-9112
▁performing	-9113
▁personally	-9114
▁recipients	-9115
▁superpower	-9116
▁supervisor	-9117
▁systematic	-9118
▁undertaken	-9119
▁Palestinian	-9120
▁application	-9121
▁contributes	-9122
▁devaluation	-9123
▁introducing	-9124
▁maintenance	-9125
▁predecessor	-9126
▁projections	-9127
▁revolutions	-9128
▁specialists	-9129
▁statistical	-9130
▁Nevertheless	-9131
▁acknowledged	-9132
▁conversation	-9133
▁fluctuations	-9134
▁beneficiaries	-9135
▁investigation	-9136
▁justification	-9137
▁understandable	-9138
-4	-9139
PA	-9140
PS	-9141
iS	-9142
oa	-9143
yo	-9144
zh	-9145
MEs	-9146
TIP	-9147
abe	-9148
ady	-9149
iza	-9150
upp	-9151
▁80	-9152
▁Ay	-9153
▁CF	-9154
▁Ox	-9155
▁ST	-9156
▁id	-9157
▁iv	-9158
ache	-9159
agen	-9160
airy	-9161
gien	-9162
itch	-9163
mble	-9164
oned	-9165
pora	-9166
utch	-9167
utor	-9168
▁Ham	-9169
▁ICT	-9170
▁JPM	-9171
▁Jan	-9172
▁Mat	-9173
▁Squ	-9174
▁bip	-9175
▁dat	-9176
▁dog	-9177
▁dry	-9178
agine	-9179
aiwan	-9180
ament	-9181
anmar	-9182
child	-9183
fifth	-9184
gical	-9185
green	-9186
isher	-9187
itime	-9188
izers	-9189
osion	-9190
sider	-9191
swana	-9192
vable	-9193
vency	-9194
▁Belg	-9195
▁Dodd	-9196
▁Nord	-9197
▁Roma	-9198
▁TTIP	-9199
▁buff	-9200
▁coff	-9201
▁curt	-9202
▁desp	-9203
▁dias	-9204
▁fier	-9205
▁hurd	-9206
▁leap	-9207
▁loud	-9208
▁sand	-9209
▁walk	-9210
global	-9211
linked	-9212
omfort	-9213
requis	-9214
uously	-9215
▁2014.	-9216
▁2020.	-9217
▁2050.	-9218
▁Above	-9219
▁Achie	-9220
▁Alger	-9221
▁Arabs	-9222
▁Boris	-9223
▁Polit	-9224
▁agent	-9225
▁award	-9226
▁burst	-9227
▁drain	-9228
▁embod	-9229
▁flaws	-9230
▁griev	-9231
▁guess	-9232
▁ivory	-9233
▁marks	-9234
▁midst	-9235
▁notor	-9236
▁spoke	-9237
▁store	-9238
▁unint	-9239
induced	-9240
ordable	-9241
▁Carney	-9242
▁Taiwan	-9243
▁arrive	-9244
▁behave	-9245
▁checks	-9246
▁contam	-9247
▁dispos	-9248
▁divest	-9249
▁dozens	-9250
▁headed	-9251
▁images	-9252
▁incons	-9253
▁punish	-9254
▁purely	-9255
▁versus	-9256
changing	-9257
location	-9258
▁Denmark	-9259
▁Iceland	-9260
▁Mexican	-9261
▁Myanmar	-9262
▁Snowden	-9263
▁Workers	-9264
▁aggress	-9265
▁carries	-9266
▁charged	-9267
▁clients	-9268
▁closest	-9269
▁desired	-9270
▁endemic	-9271
▁erosion	-9272
▁extends	-9273
▁hostile	-9274
▁linking	-9275
▁located	-9276
▁married	-9277
▁ordered	-9278
▁partial	-9279
▁refusal	-9280
▁reveals	-9281
▁revived	-9282
▁stalled	-9283
▁suicide	-9284
▁unknown	-9285
▁Botswana	-9286
▁Emirates	-9287
▁Eurasian	-9288
▁Hollande	-9289
▁Millions	-9290
▁captured	-9291
▁choosing	-9292
▁constitu	-9293
▁cyclical	-9294
▁democrat	-9295
▁deserves	-9296
▁dividend	-9297
▁engaging	-9298
▁ignoring	-9299
▁indebted	-9300
▁irrevers	-9301
▁modified	-9302
▁parallel	-9303
▁preoccup	-9304
▁prevents	-9305
▁reminder	-9306
▁restored	-9307
▁tailored	-9308
▁theories	-9309
▁Framework	-9310
▁Programme	-9311
▁Universal	-9312
▁abortions	-9313
▁advocated	-9314
▁benchmark	-9315
▁celebrate	-9316
▁collected	-9317
▁districts	-9318
▁extending	-9319
▁forefront	-9320
▁formation	-9321
▁hostility	-9322
▁initiated	-9323
▁interview	-9324
▁organisms	-9325
▁recapital	-9326
▁replacing	-9327
▁shrinking	-9328
▁tolerance	-9329
▁breastfeed	-9330
▁convenient	-9331
▁dimensions	-9332
▁diminished	-9333
▁extraction	-9334
▁extremists	-9335
▁fertilizer	-9336
▁fragmented	-9337
▁interested	-9338
▁irrigation	-9339
▁pesticides	-9340
▁practition	-9341
▁substitute	-9342
▁sustaining	-9343
▁Journalists	-9344
▁bureaucracy	-9345
▁elimination	-9346
▁experiments	-9347
▁smallholder	-9348
▁architecture	-9349
▁collaborative	-9350
▁possibilities	-9351
▁traditionally	-9352
▁interpretation	-9353
32	-9354
GI	-9355
IL	-9356
OK	-9357
OM	-9358
TB	-9359
ta	-9360
vo	-9361
5%.	-9362
ENA	-9363
Wor	-9364
ben	-9365
dig	-9366
ida	-9367
iov	-9368
ozy	-9369
que	-9370
uma	-9371
▁Ku	-9372
EATT	-9373
OSCO	-9374
ales	-9375
anch	-9376
gged	-9377
iasm	-9378
iral	-9379
ogen	-9380
okyo	-9381
olas	-9382
rend	-9383
that	-9384
umin	-9385
usse	-9386
▁Com	-9387
▁ESG	-9388
▁Imm	-9389
▁Web	-9390
▁din	-9391
▁ham	-9392
▁inn	-9393
▁nut	-9394
▁van	-9395
▁vib	-9396
▁xen	-9397
ADRID	-9398
World	-9399
agger	-9400
aning	-9401
atell	-9402
chers	-9403
craft	-9404
erman	-9405
ilton	-9406
inery	-9407
opher	-9408
rones	-9409
uards	-9410
uerto	-9411
utors	-9412
▁Belt	-9413
▁Prom	-9414
▁Rece	-9415
▁Rico	-9416
▁Tusk	-9417
▁ampl	-9418
▁coun	-9419
▁hect	-9420
▁item	-9421
▁lect	-9422
▁puzz	-9423
▁subt	-9424
EATTLE	-9425
arkozy	-9426
arther	-9427
avirus	-9428
determ	-9429
reated	-9430
▁1980’	-9431
▁1990,	-9432
▁Addis	-9433
▁Index	-9434
▁Peres	-9435
▁Press	-9436
▁Super	-9437
▁Tokyo	-9438
▁Urban	-9439
▁Young	-9440
▁alien	-9441
▁ambig	-9442
▁array	-9443
▁boast	-9444
▁catal	-9445
▁cohes	-9446
▁dairy	-9447
▁doses	-9448
▁draft	-9449
▁floor	-9450
▁inaug	-9451
▁inval	-9452
▁keeps	-9453
▁label	-9454
▁mixed	-9455
▁recur	-9456
▁recyc	-9457
▁relax	-9458
▁robot	-9459
▁roots	-9460
▁tasks	-9461
▁treas	-9462
▁unres	-9463
▁weigh	-9464
America	-9465
etitive	-9466
ologist	-9467
raining	-9468
vinenko	-9469
▁Office	-9470
▁Puerto	-9471
▁Syriza	-9472
▁desert	-9473
▁devise	-9474
▁dismal	-9475
▁hazard	-9476
▁irrele	-9477
▁nurses	-9478
▁quotas	-9479
▁relent	-9480
▁repair	-9481
▁repeal	-9482
▁satell	-9483
▁seized	-9484
▁spends	-9485
▁stages	-9486
▁stated	-9487
▁theore	-9488
▁thinks	-9489
▁timely	-9490
▁undern	-9491
▁unfold	-9492
iscrimin	-9493
specific	-9494
▁SEATTLE	-9495
▁Success	-9496
▁Vaccine	-9497
▁William	-9498
▁anytime	-9499
▁broaden	-9500
▁courses	-9501
▁cryptoc	-9502
▁derived	-9503
▁earning	-9504
▁encount	-9505
▁endorse	-9506
▁engines	-9507
▁explore	-9508
▁harmful	-9509
▁helpful	-9510
▁horizon	-9511
▁impacts	-9512
▁inquiry	-9513
▁obliged	-9514
▁orderly	-9515
▁paradox	-9516
▁portion	-9517
▁sending	-9518
▁suffers	-9519
▁Friedman	-9520
▁appetite	-9521
▁assuming	-9522
▁cultures	-9523
▁defeated	-9524
▁examined	-9525
▁invented	-9526
▁metaphor	-9527
▁opposing	-9528
▁stations	-9529
▁tropical	-9530
government	-9531
ifications	-9532
ologically	-9533
▁Achieving	-9534
▁Alexander	-9535
▁Consensus	-9536
▁Obviously	-9537
▁Worldwide	-9538
▁certainty	-9539
▁civilians	-9540
▁departure	-9541
▁depending	-9542
▁discourse	-9543
▁extension	-9544
▁imperfect	-9545
▁intensity	-9546
▁mobilized	-9547
▁preferred	-9548
▁prerequis	-9549
▁prevailed	-9550
▁sensitive	-9551
▁worsening	-9552
▁Litvinenko	-9553
▁administer	-9554
▁anticipate	-9555
▁childbirth	-9556
▁containing	-9557
▁continuous	-9558
▁deliberate	-9559
▁disability	-9560
▁enthusiasm	-9561
▁foreigners	-9562
▁minorities	-9563
▁politician	-9564
▁recovering	-9565
▁safeguards	-9566
▁temptation	-9567
▁undergoing	-9568
▁assessments	-9569
▁destination	-9570
▁diversified	-9571
▁eradicating	-9572
▁expectation	-9573
▁requirement	-9574
▁revelations	-9575
▁unification	-9576
▁Constitution	-9577
▁Tuberculosis	-9578
▁expansionary	-9579
▁unacceptable	-9580
▁automatically	-9581
▁consequential	-9582
▁decentralized	-9583
▁practitioners	-9584
▁transnational	-9585
EP	-9586
GE	-9587
Ps	-9588
uh	-9589
ads	-9590
aur	-9591
irt	-9592
yip	-9593
▁rh	-9594
away	-9595
bear	-9596
chen	-9597
eded	-9598
edge	-9599
eter	-9600
good	-9601
high	-9602
oggi	-9603
othe	-9604
rish	-9605
ulum	-9606
yles	-9607
▁11,	-9608
▁Lim	-9609
▁Ret	-9610
▁Rog	-9611
▁bon	-9612
▁box	-9613
▁hus	-9614
▁mir	-9615
▁pin	-9616
▁rac	-9617
anted	-9618
comed	-9619
downs	-9620
giene	-9621
ijing	-9622
isted	-9623
perty	-9624
▁Balt	-9625
▁Coal	-9626
▁Deal	-9627
▁Does	-9628
▁Ever	-9629
▁Farm	-9630
▁Iron	-9631
▁Jeff	-9632
▁Kenn	-9633
▁Saud	-9634
▁Vill	-9635
▁enjo	-9636
▁feet	-9637
▁pact	-9638
▁scre	-9639
▁smok	-9640
▁summ	-9641
▁tank	-9642
▁terr	-9643
▁wins	-9644
infall	-9645
irical	-9646
orders	-9647
osting	-9648
uitive	-9649
▁Ababa	-9650
▁Banks	-9651
▁Civil	-9652
▁Cross	-9653
▁Dutch	-9654
▁Haiti	-9655
▁Khash	-9656
▁Recep	-9657
▁Youth	-9658
▁ample	-9659
▁beaut	-9660
▁cards	-9661
▁chart	-9662
▁drove	-9663
▁eleph	-9664
▁escap	-9665
▁fines	-9666
▁forge	-9667
▁incre	-9668
▁indef	-9669
▁merit	-9670
▁rigid	-9671
▁scour	-9672
▁spill	-9673
▁tanks	-9674
▁wield	-9675
arching	-9676
capital	-9677
economy	-9678
support	-9679
▁Deaton	-9680
▁MADRID	-9681
▁Mozamb	-9682
▁Tayyip	-9683
▁Twenty	-9684
▁absent	-9685
▁abuses	-9686
▁advers	-9687
▁albeit	-9688
▁bought	-9689
▁casual	-9690
▁cataly	-9691
▁cigare	-9692
▁deemed	-9693
▁eroded	-9694
▁ingred	-9695
▁locked	-9696
▁misman	-9697
▁native	-9698
▁player	-9699
▁potent	-9700
▁proves	-9701
▁silent	-9702
▁suspic	-9703
▁unions	-9704
berspace	-9705
sourcing	-9706
volution	-9707
▁Kurdish	-9708
▁Nuclear	-9709
▁Richard	-9710
▁Sarkozy	-9711
▁Science	-9712
▁Similar	-9713
▁cronies	-9714
▁declare	-9715
▁dilemma	-9716
▁earthqu	-9717
▁emulate	-9718
▁ensures	-9719
▁fascism	-9720
▁plagued	-9721
▁readily	-9722
▁talking	-9723
▁tighter	-9724
▁transit	-9725
▁typical	-9726
▁unusual	-9727
▁vehicle	-9728
▁vibrant	-9729
▁winners	-9730
ternative	-9731
▁allocate	-9732
▁attacked	-9733
▁borrowed	-9734
▁deciding	-9735
▁diminish	-9736
▁embedded	-9737
▁episodes	-9738
▁exposing	-9739
▁governed	-9740
▁headline	-9741
▁impeding	-9742
▁insurers	-9743
▁narrowly	-9744
▁outdated	-9745
▁pensions	-9746
▁persists	-9747
▁rainfall	-9748
▁tendency	-9749
▁tracking	-9750
▁welcomed	-9751
▁Democracy	-9752
▁Khashoggi	-9753
▁Mechanism	-9754
▁Palestine	-9755
▁automatic	-9756
▁broadcast	-9757
▁educating	-9758
▁geography	-9759
▁machinery	-9760
▁professor	-9761
▁promotion	-9762
▁rationale	-9763
▁regulator	-9764
▁scientist	-9765
▁stringent	-9766
▁utilities	-9767
▁advocating	-9768
▁attributed	-9769
▁behavioral	-9770
▁boundaries	-9771
▁connection	-9772
▁constitute	-9773
▁constraint	-9774
▁convention	-9775
▁developers	-9776
▁militarily	-9777
▁mitigating	-9778
▁processing	-9779
▁remarkably	-9780
▁resentment	-9781
▁Information	-9782
▁centralized	-9783
▁competitors	-9784
▁constitutes	-9785
▁negotiators	-9786
▁nutritional	-9787
▁outstanding	-9788
▁sustainably	-9789
▁accumulation	-9790
▁deficiencies	-9791
▁representing	-9792
▁Congressional	-9793
▁complementary	-9794
▁disadvantaged	-9795
▁underestimate	-9796
▁unfortunately	-9797
▁unpredictable	-9798
▁industrialized	-9799
13	-9800
17	-9801
Ds	-9802
In	-9803
SA	-9804
tw	-9805
2.5	-9806
600	-9807
ami	-9808
ams	-9809
aso	-9810
ato	-9811
eal	-9812
elf	-9813
gen	-9814
mal	-9815
obs	-9816
och	-9817
▁BE	-9818
▁om	-9819
arat	-9820
arer	-9821
ding	-9822
iang	-9823
moon	-9824
nard	-9825
plan	-9826
uter	-9827
▁1.3	-9828
▁Aid	-9829
▁Art	-9830
▁Cup	-9831
▁Dem	-9832
▁PiS	-9833
▁Wil	-9834
▁bio	-9835
▁coc	-9836
▁cyn	-9837
▁fre	-9838
▁lau	-9839
▁mas	-9840
▁ped	-9841
▁rub	-9842
▁voc	-9843
China	-9844
Frank	-9845
OSCOW	-9846
after	-9847
group	-9848
icago	-9849
ivals	-9850
▁1920	-9851
▁1997	-9852
▁2002	-9853
▁Dani	-9854
▁Drug	-9855
▁Land	-9856
▁Life	-9857
▁Manc	-9858
▁Open	-9859
▁Peru	-9860
▁Scot	-9861
▁Stat	-9862
▁Vice	-9863
▁biot	-9864
▁caut	-9865
▁cere	-9866
▁fled	-9867
▁glim	-9868
▁issu	-9869
▁mira	-9870
▁myth	-9871
▁ship	-9872
▁stub	-9873
▁subs	-9874
▁thin	-9875
▁tiny	-9876
▁wary	-9877
▁zone	-9878
alking	-9879
ealand	-9880
elfare	-9881
ewater	-9882
iaries	-9883
ighted	-9884
seless	-9885
usions	-9886
utting	-9887
▁Event	-9888
▁Irish	-9889
▁Popul	-9890
▁Smith	-9891
▁Would	-9892
▁alive	-9893
▁brave	-9894
▁bread	-9895
▁empty	-9896
▁honor	-9897
▁hoped	-9898
▁maize	-9899
▁peers	-9900
▁recru	-9901
▁rents	-9902
▁stuck	-9903
▁sugar	-9904
▁verge	-9905
certain	-9906
ensibly	-9907
herence	-9908
ication	-9909
istence	-9910
service	-9911
▁Consum	-9912
▁Fiscal	-9913
▁Gender	-9914
▁MOSCOW	-9915
▁Modern	-9916
▁Scient	-9917
▁barrel	-9918
▁commem	-9919
▁cultiv	-9920
▁excell	-9921
▁fought	-9922
▁fright	-9923
▁halved	-9924
▁hatred	-9925
▁hybrid	-9926
▁insect	-9927
▁lacked	-9928
▁missed	-9929
▁nearby	-9930
▁resemb	-9931
▁rivers	-9932
▁rulers	-9933
▁shield	-9934
▁slogan	-9935
▁solely	-9936
▁spoken	-9937
▁turbul	-9938
▁unlock	-9939
▁unreal	-9940
▁upgrad	-9941
▁winner	-9942
▁wisely	-9943
cyclical	-9944
educated	-9945
thinking	-9946
▁Beijing	-9947
▁Chicago	-9948
▁Control	-9949
▁Indians	-9950
▁Maynard	-9951
▁Protect	-9952
▁Society	-9953
▁Special	-9954
▁Swedish	-9955
▁adolesc	-9956
▁appeals	-9957
▁bargain	-9958
▁binding	-9959
▁caution	-9960
▁congest	-9961
▁delayed	-9962
▁follows	-9963
▁install	-9964
▁islands	-9965
▁margins	-9966
▁offices	-9967
▁readers	-9968
▁revised	-9969
▁unavoid	-9970
▁unclear	-9971
▁virtual	-9972
Americans	-9973
regulated	-9974
renchment	-9975
▁Franklin	-9976
▁Israelis	-9977
▁Services	-9978
▁advocacy	-9979
▁amounted	-9980
▁backdrop	-9981
▁contempl	-9982
▁inaction	-9983
▁interpre	-9984
▁lobbying	-9985
▁manifest	-9986
▁maritime	-9987
▁mathemat	-9988
▁precipit	-9989
▁printing	-9990
▁resisted	-9991
▁soldiers	-9992
▁stubborn	-9993
▁tradable	-9994
▁undercut	-9995
corruption	-9996
investment	-9997
▁Migration	-9998
▁Sometimes	-9999
▁appointed	-10000
▁combating	-10001
▁compounds	-10002
▁conscious	-10003
▁contagion	-10004
▁demograph	-10005
▁diagnosed	-10006
▁discovery	-10007
▁divisions	-10008
▁exclusion	-10009
▁frequency	-10010
▁incumbent	-10011
▁inherited	-10012
▁inspiring	-10013
▁plausible	-10014
▁plummeted	-10015
▁processed	-10016
▁socialist	-10017
▁Bundesbank	-10018
▁abandoning	-10019
▁accurately	-10020
▁capacities	-10021
▁capitalize	-10022
▁decisively	-10023
▁documented	-10024
▁enterprise	-10025
▁freshwater	-10026
▁incomplete	-10027
▁intentions	-10028
▁positioned	-10029
▁proclaimed	-10030
▁unresolved	-10031
▁destabilize	-10032
▁forthcoming	-10033
▁geopolitics	-10034
▁incorporate	-10035
▁inhabitants	-10036
▁manufacture	-10037
▁speculation	-10038
▁supervisory	-10039
▁underground	-10040
▁aggressively	-10041
▁interactions	-10042
▁irreversible	-10043
▁Transatlantic	-10044
▁assassination	-10045
▁deterioration	-10046
▁fragmentation	-10047
▁investigative	-10048
▁jurisdictions	-10049
▁entrepreneurial	-10050
AO	-10051
DS	-10052
HC	-10053
IF	-10054
zb	-10055
1.3	-10056
APE	-10057
AVI	-10058
emy	-10059
jan	-10060
law	-10061
map	-10062
onn	-10063
ped	-10064
pts	-10065
sky	-10066
▁CD	-10067
▁IT	-10068
achs	-10069
amin	-10070
asty	-10071
ball	-10072
conf	-10073
erry	-10074
eted	-10075
fake	-10076
heid	-10077
icks	-10078
isan	-10079
onic	-10080
rock	-10081
wood	-10082
▁13%	-10083
▁2.5	-10084
▁Att	-10085
▁Cop	-10086
▁Hel	-10087
▁MIT	-10088
▁Oce	-10089
▁Six	-10090
▁Spe	-10091
▁bin	-10092
▁gre	-10093
▁hol	-10094
▁hur	-10095
▁piv	-10096
▁sla	-10097
▁syn	-10098
Japan	-10099
anabe	-10100
ancer	-10101
armed	-10102
asure	-10103
ceive	-10104
chest	-10105
fired	-10106
found	-10107
hedul	-10108
merce	-10109
nings	-10110
obile	-10111
stein	-10112
▁2050	-10113
▁Case	-10114
▁Clos	-10115
▁Deep	-10116
▁GAVI	-10117
▁Mart	-10118
▁Mikh	-10119
▁SMEs	-10120
▁Step	-10121
▁film	-10122
▁girl	-10123
▁ling	-10124
▁mant	-10125
▁maps	-10126
▁mild	-10127
▁outp	-10128
▁shel	-10129
▁soci	-10130
▁sums	-10131
▁tied	-10132
▁urge	-10133
▁veto	-10134
cribed	-10135
hester	-10136
iciary	-10137
unning	-10138
▁2,000	-10139
▁Congo	-10140
▁Guard	-10141
▁Henry	-10142
▁Kurds	-10143
▁Right	-10144
▁Sadly	-10145
▁Serge	-10146
▁Stock	-10147
▁centr	-10148
▁civic	-10149
▁crude	-10150
▁fault	-10151
▁hypot	-10152
▁innoc	-10153
▁intra	-10154
▁irony	-10155
▁magaz	-10156
▁monet	-10157
▁music	-10158
▁named	-10159
▁overe	-10160
▁rebel	-10161
▁rests	-10162
▁rises	-10163
▁ships	-10164
▁taxed	-10165
▁units	-10166
▁vigor	-10167
banking	-10168
enhagen	-10169
initely	-10170
roviral	-10171
▁Anyone	-10172
▁Square	-10173
▁deepen	-10174
▁evolve	-10175
▁excuse	-10176
▁fronts	-10177
▁harmon	-10178
▁houses	-10179
▁indiff	-10180
▁meters	-10181
▁overth	-10182
▁poised	-10183
▁wholes	-10184
aculture	-10185
▁200,000	-10186
▁Austria	-10187
▁Challen	-10188
▁Efforts	-10189
▁Imagine	-10190
▁Refugee	-10191
▁burning	-10192
▁careers	-10193
▁chaired	-10194
▁enlight	-10195
▁episode	-10196
▁farther	-10197
▁fishing	-10198
▁handful	-10199
▁hosting	-10200
▁hygiene	-10201
▁illustr	-10202
▁invited	-10203
▁killers	-10204
▁lawyers	-10205
▁legally	-10206
▁monthly	-10207
▁outrage	-10208
▁pledges	-10209
▁prevail	-10210
▁propose	-10211
▁schedul	-10212
▁settled	-10213
▁studied	-10214
▁symptom	-10215
▁teacher	-10216
▁tougher	-10217
▁weakens	-10218
▁Building	-10219
▁Diseases	-10220
▁Novartis	-10221
▁Recently	-10222
▁Refugees	-10223
▁Strategy	-10224
▁Vaccines	-10225
▁Watanabe	-10226
▁commonly	-10227
▁covering	-10228
▁daughter	-10229
▁diaspora	-10230
▁downside	-10231
▁evolving	-10232
▁flourish	-10233
▁founders	-10234
▁founding	-10235
▁freedoms	-10236
▁hardship	-10237
▁illusion	-10238
▁imagined	-10239
▁imminent	-10240
▁insisted	-10241
▁integral	-10242
▁markedly	-10243
▁pastoral	-10244
▁presents	-10245
▁redirect	-10246
▁spectrum	-10247
▁sweeping	-10248
▁thousand	-10249
▁whenever	-10250
▁Islamists	-10251
▁Microsoft	-10252
▁accompany	-10253
▁analytics	-10254
▁behaviors	-10255
▁communism	-10256
▁considers	-10257
▁depressed	-10258
▁diversify	-10259
▁exchanges	-10260
▁exploring	-10261
▁footprint	-10262
▁fostering	-10263
▁homegrown	-10264
▁irrespons	-10265
▁judiciary	-10266
▁mandatory	-10267
▁necessity	-10268
▁oligarchs	-10269
▁pipelines	-10270
▁proactive	-10271
▁resolving	-10272
▁respected	-10273
▁struggled	-10274
▁therapies	-10275
▁unlimited	-10276
▁withstand	-10277
▁Addressing	-10278
▁Copenhagen	-10279
▁Mozambique	-10280
▁distribute	-10281
▁globalized	-10282
▁grievances	-10283
▁indirectly	-10284
▁internally	-10285
▁intervened	-10286
▁irrelevant	-10287
▁motivation	-10288
▁overcoming	-10289
▁philosophy	-10290
▁preventive	-10291
▁publishing	-10292
▁quantities	-10293
▁registered	-10294
▁skepticism	-10295
▁supplement	-10296
▁supportive	-10297
▁unintended	-10298
▁wastewater	-10299
communicable	-10300
▁concentrate	-10301
▁genetically	-10302
▁integrating	-10303
▁limitations	-10304
▁preferences	-10305
▁accomplished	-10306
▁commentators	-10307
▁longstanding	-10308
▁nationalists	-10309
▁prescription	-10310
▁technocratic	-10311
▁breastfeeding	-10312
▁disappointing	-10313
▁overwhelmingly	-10314
▁underestimated	-10315
▁administrations	-10316
▁interdependence	-10317
CH	-10318
SR	-10319
eu	-10320
kh	-10321
no	-10322
uy	-10323
5%,	-10324
ARC	-10325
Sem	-10326
iph	-10327
ixt	-10328
ket	-10329
ovo	-10330
pel	-10331
vez	-10332
vol	-10333
▁2,	-10334
▁65	-10335
▁Br	-10336
▁GN	-10337
▁PP	-10338
-199	-10339
000,	-10340
OKYO	-10341
bons	-10342
cile	-10343
eath	-10344
emer	-10345
fire	-10346
gans	-10347
hips	-10348
hous	-10349
igue	-10350
imag	-10351
kina	-10352
lose	-10353
runt	-10354
trad	-10355
▁16%	-10356
▁400	-10357
▁Abu	-10358
▁Adv	-10359
▁BAM	-10360
▁Ens	-10361
▁Haw	-10362
▁Hig	-10363
▁Neg	-10364
▁cos	-10365
▁esp	-10366
▁flu	-10367
▁inj	-10368
▁wet	-10369
ammed	-10370
arest	-10371
bodia	-10372
books	-10373
democ	-10374
great	-10375
ietal	-10376
ounce	-10377
ranch	-10378
ravel	-10379
setse	-10380
skill	-10381
worth	-10382
yield	-10383
▁10-1	-10384
▁Carm	-10385
▁Fail	-10386
▁Faso	-10387
▁Ivan	-10388
▁Jong	-10389
▁Krug	-10390
▁Less	-10391
▁Moon	-10392
▁Need	-10393
▁OPEC	-10394
▁Prov	-10395
▁Rome	-10396
▁Stan	-10397
▁Uber	-10398
▁WWII	-10399
▁Work	-10400
▁damp	-10401
▁dual	-10402
▁lags	-10403
▁mega	-10404
▁resh	-10405
▁reun	-10406
▁semi	-10407
▁shed	-10408
▁sour	-10409
Brazil	-10410
apable	-10411
consum	-10412
dollar	-10413
estion	-10414
guided	-10415
iating	-10416
needed	-10417
negoti	-10418
owners	-10419
people	-10420
ppling	-10421
rorism	-10422
uction	-10423
uggish	-10424
uminum	-10425
▁2018.	-10426
▁Advis	-10427
▁Czech	-10428
▁Peter	-10429
▁Sachs	-10430
▁Scott	-10431
▁TOKYO	-10432
▁allev	-10433
▁alter	-10434
▁amend	-10435
▁backs	-10436
▁bases	-10437
▁blunt	-10438
▁borne	-10439
▁chess	-10440
▁coral	-10441
▁crack	-10442
▁datab	-10443
▁dozen	-10444
▁fires	-10445
▁grids	-10446
▁insur	-10447
▁judge	-10448
▁lands	-10449
▁likes	-10450
▁mired	-10451
▁naive	-10452
▁onset	-10453
▁seats	-10454
▁smoke	-10455
▁steam	-10456
▁stick	-10457
▁towns	-10458
▁unite	-10459
▁video	-10460
Russian	-10461
ajority	-10462
ritical	-10463
▁Histor	-10464
▁Jewish	-10465
▁Leader	-10466
▁League	-10467
▁Reddit	-10468
▁Taking	-10469
▁Target	-10470
▁assemb	-10471
▁culmin	-10472
▁defect	-10473
▁denial	-10474
▁drones	-10475
▁errors	-10476
▁fierce	-10477
▁hosted	-10478
▁illust	-10479
▁nightm	-10480
▁overly	-10481
▁plight	-10482
▁prepar	-10483
▁ranked	-10484
▁season	-10485
▁taxing	-10486
▁tended	-10487
▁tsetse	-10488
cessions	-10489
equality	-10490
ertainly	-10491
stically	-10492
▁Balkans	-10493
▁Burkina	-10494
▁Krugman	-10495
▁Mikhail	-10496
▁Senegal	-10497
▁barrier	-10498
▁battles	-10499
▁clarity	-10500
▁comfort	-10501
▁conclus	-10502
▁exagger	-10503
▁examine	-10504
▁exceeds	-10505
▁fleeing	-10506
▁forever	-10507
▁formula	-10508
▁hardest	-10509
▁ignores	-10510
▁impover	-10511
▁oversee	-10512
▁penalty	-10513
▁retreat	-10514
▁session	-10515
▁signals	-10516
▁station	-10517
▁succumb	-10518
▁tension	-10519
▁theoret	-10520
▁unified	-10521
▁Cambodia	-10522
▁Ensuring	-10523
▁Lebanese	-10524
▁Scotland	-10525
▁admitted	-10526
▁aluminum	-10527
▁customer	-10528
▁drinking	-10529
▁equities	-10530
▁protects	-10531
▁quantity	-10532
▁referred	-10533
▁reformed	-10534
▁retained	-10535
▁sexually	-10536
▁shutdown	-10537
▁sluggish	-10538
▁speaking	-10539
▁startups	-10540
▁symbolic	-10541
▁talented	-10542
protection	-10543
▁Certainly	-10544
▁Egyptians	-10545
▁Hurricane	-10546
▁Inflation	-10547
▁Investors	-10548
▁Relations	-10549
▁amounting	-10550
▁countless	-10551
▁curricula	-10552
▁explosion	-10553
▁historian	-10554
▁injustice	-10555
▁leveraged	-10556
▁proposing	-10557
▁radically	-10558
▁recipient	-10559
▁reconcile	-10560
▁returning	-10561
▁revealing	-10562
▁satisfact	-10563
▁surprised	-10564
▁surrogacy	-10565
▁suspicion	-10566
▁troubling	-10567
▁uncomfort	-10568
▁Manchester	-10569
▁appearance	-10570
▁conspiracy	-10571
▁dependency	-10572
▁destroying	-10573
▁domination	-10574
▁enormously	-10575
▁impression	-10576
▁influenced	-10577
▁laboratory	-10578
▁lifestyles	-10579
▁maximizing	-10580
▁ostensibly	-10581
▁perpetuate	-10582
▁reasonably	-10583
▁respective	-10584
▁simplistic	-10585
▁surrounded	-10586
▁unilateral	-10587
▁adolescents	-10588
▁aquaculture	-10589
▁concessions	-10590
▁constructed	-10591
▁perceptions	-10592
▁speculative	-10593
▁unavoidable	-10594
▁understands	-10595
▁universally	-10596
▁Commonwealth	-10597
▁crowdfunding	-10598
▁deliberately	-10599
▁perspectives	-10600
▁complications	-10601
▁demonstrations	-10602
▁reconciliation	-10603
11	-10604
21	-10605
AG	-10606
Ab	-10607
OU	-10608
TC	-10609
Ws	-10610
sy	-10611
”;	-10612
800	-10613
FTA	-10614
ORE	-10615
but	-10616
ddr	-10617
dis	-10618
mod	-10619
olf	-10620
▁90	-10621
▁Hy	-10622
▁ic	-10623
▁ta	-10624
acit	-10625
amac	-10626
argo	-10627
blow	-10628
burg	-10629
ceiv	-10630
gery	-10631
icts	-10632
inct	-10633
last	-10634
lict	-10635
olar	-10636
only	-10637
ourg	-10638
ston	-10639
ttes	-10640
▁14%	-10641
▁3.5	-10642
▁30-	-10643
▁Dam	-10644
▁Ext	-10645
▁Fac	-10646
▁Fif	-10647
▁Lux	-10648
▁Mah	-10649
▁Met	-10650
▁Sin	-10651
▁cri	-10652
▁dut	-10653
▁hen	-10654
▁lit	-10655
▁mur	-10656
▁rav	-10657
▁sho	-10658
▁upd	-10659
Afric	-10660
achia	-10661
arial	-10662
aying	-10663
heric	-10664
iasis	-10665
isons	-10666
isure	-10667
ropol	-10668
there	-10669
ullah	-10670
vedev	-10671
wered	-10672
▁1929	-10673
▁1940	-10674
▁1992	-10675
▁Alan	-10676
▁Brid	-10677
▁Crit	-10678
▁Flor	-10679
▁Gaza	-10680
▁Hezb	-10681
▁Jean	-10682
▁MENA	-10683
▁NTDs	-10684
▁Park	-10685
▁Pric	-10686
▁Prop	-10687
▁Sant	-10688
▁Sino	-10689
▁Sure	-10690
▁Wars	-10691
▁Wood	-10692
▁coex	-10693
▁culp	-10694
▁ener	-10695
▁fits	-10696
▁horn	-10697
▁jail	-10698
▁levy	-10699
▁owes	-10700
▁plut	-10701
▁salt	-10702
▁seat	-10703
▁stew	-10704
▁twin	-10705
▁unth	-10706
▁wood	-10707
Russia	-10708
arring	-10709
loaded	-10710
public	-10711
ragile	-10712
regard	-10713
secure	-10714
▁2000.	-10715
▁Early	-10716
▁Euros	-10717
▁Glass	-10718
▁Integ	-10719
▁Local	-10720
▁Maybe	-10721
▁Naval	-10722
▁Reduc	-10723
▁Start	-10724
▁arsen	-10725
▁audit	-10726
▁cited	-10727
▁disse	-10728
▁erect	-10729
▁euros	-10730
▁ignor	-10731
▁incon	-10732
▁knock	-10733
▁laund	-10734
▁lucky	-10735
▁outwe	-10736
▁redef	-10737
▁scand	-10738
▁swift	-10739
▁vague	-10740
amacare	-10741
amation	-10742
andered	-10743
embered	-10744
hemical	-10745
keeping	-10746
onsored	-10747
ositive	-10748
welfare	-10749
▁Angola	-10750
▁Either	-10751
▁Higher	-10752
▁Nordic	-10753
▁Prince	-10754
▁Sharon	-10755
▁adhere	-10756
▁builds	-10757
▁circul	-10758
▁clause	-10759
▁conced	-10760
▁domest	-10761
▁earned	-10762
▁expire	-10763
▁gotten	-10764
▁multip	-10765
▁myriad	-10766
▁nomine	-10767
▁oversh	-10768
▁panace	-10769
▁savers	-10770
▁settle	-10771
▁shrink	-10772
▁sports	-10773
▁stores	-10774
▁street	-10775
▁thrown	-10776
▁triple	-10777
▁visits	-10778
▁worthy	-10779
arations	-10780
▁Algeria	-10781
▁Belgium	-10782
▁Charles	-10783
▁Critics	-10784
▁Estonia	-10785
▁Looking	-10786
▁Medical	-10787
▁Sanders	-10788
▁aligned	-10789
▁assured	-10790
▁bearing	-10791
▁booming	-10792
▁boosted	-10793
▁bridges	-10794
▁contest	-10795
▁fatigue	-10796
▁imposes	-10797
▁intrins	-10798
▁knowhow	-10799
▁leisure	-10800
▁passage	-10801
▁removal	-10802
▁request	-10803
▁restaur	-10804
▁reviews	-10805
▁shorter	-10806
▁simpler	-10807
▁strides	-10808
▁trusted	-10809
▁undersc	-10810
▁website	-10811
enhancing	-10812
izational	-10813
▁Contrary	-10814
▁Everyone	-10815
▁Globally	-10816
▁abundant	-10817
▁cautious	-10818
▁convened	-10819
▁defenses	-10820
▁everyday	-10821
▁fortunes	-10822
▁insectic	-10823
▁maturity	-10824
▁officers	-10825
▁organize	-10826
▁prohibit	-10827
▁proposes	-10828
▁register	-10829
▁reminded	-10830
▁reviving	-10831
▁shocking	-10832
▁subjects	-10833
▁thriving	-10834
▁upheaval	-10835
▁virtuous	-10836
▁Hezbollah	-10837
▁avoidance	-10838
▁confronts	-10839
▁constrain	-10840
▁disrupted	-10841
▁exhausted	-10842
▁illiberal	-10843
▁imbalance	-10844
▁incidence	-10845
▁influenza	-10846
▁locations	-10847
▁paralysis	-10848
▁pragmatic	-10849
▁privately	-10850
▁withdrawn	-10851
▁Eventually	-10852
▁Resistance	-10853
▁Securities	-10854
▁accomplish	-10855
▁accumulate	-10856
▁algorithms	-10857
▁autocratic	-10858
▁capitalist	-10859
▁congestion	-10860
▁correction	-10861
▁curriculum	-10862
▁disclosure	-10863
▁exploiting	-10864
▁jeopardize	-10865
▁leveraging	-10866
▁portfolios	-10867
▁presumably	-10868
▁reconsider	-10869
▁reportedly	-10870
withstanding	-10871
▁coincidence	-10872
▁conclusions	-10873
▁convenience	-10874
▁correlation	-10875
▁exploration	-10876
▁frustration	-10877
▁persecution	-10878
▁probability	-10879
▁signatories	-10880
▁territories	-10881
▁Agricultural	-10882
▁domestically	-10883
▁highlighting	-10884
▁isolationism	-10885
▁modification	-10886
▁predecessors	-10887
▁retrenchment	-10888
▁underpinning	-10889
▁vaccinations	-10890
▁Representatives	-10891
▁multilateralism	-10892
▁vulnerabilities	-10893
FC	-10894
LM	-10895
Wh	-10896
ka	-10897
1.2	-10898
abs	-10899
ari	-10900
bur	-10901
del	-10902
ipp	-10903
lom	-10904
net	-10905
pes	-10906
spe	-10907
sub	-10908
sun	-10909
tte	-10910
ule	-10911
una	-10912
vie	-10913
wed	-10914
”).	-10915
▁34	-10916
▁36	-10917
▁4-	-10918
▁75	-10919
▁eg	-10920
▁nu	-10921
aint	-10922
blem	-10923
eins	-10924
gies	-10925
held	-10926
iban	-10927
iret	-10928
stra	-10929
uits	-10930
umes	-10931
vity	-10932
▁204	-10933
▁206	-10934
▁250	-10935
▁Bre	-10936
▁CBR	-10937
▁III	-10938
▁Jul	-10939
▁KGB	-10940
▁Low	-10941
▁Old	-10942
▁Rab	-10943
▁Rou	-10944
▁cam	-10945
▁enl	-10946
▁fly	-10947
▁hep	-10948
▁lev	-10949
▁phr	-10950
Semit	-10951
ammad	-10952
anger	-10953
ashes	-10954
benef	-10955
blown	-10956
chain	-10957
ckers	-10958
hibit	-10959
icate	-10960
icies	-10961
icine	-10962
imity	-10963
inger	-10964
irmed	-10965
super	-10966
▁CAPE	-10967
▁Camp	-10968
▁Disc	-10969
▁Dmit	-10970
▁FARC	-10971
▁Marg	-10972
▁Risk	-10973
▁asym	-10974
▁bans	-10975
▁boat	-10976
▁clar	-10977
▁dear	-10978
▁hier	-10979
▁hind	-10980
▁hubs	-10981
▁mine	-10982
▁monu	-10983
▁myst	-10984
▁rape	-10985
▁reef	-10986
▁sale	-10987
▁town	-10988
▁tsun	-10989
access	-10990
anship	-10991
eating	-10992
enment	-10993
fueled	-10994
igrant	-10995
normal	-10996
phones	-10997
retion	-10998
target	-10999
ussein	-11000
▁2007.	-11001
▁2025.	-11002
▁Ocean	-11003
▁Renzi	-11004
▁Swiss	-11005
▁drama	-11006
▁enshr	-11007
▁exped	-11008
▁fract	-11009
▁grass	-11010
▁hikes	-11011
▁ingen	-11012
▁inner	-11013
▁maybe	-11014
▁names	-11015
▁pages	-11016
▁parks	-11017
▁reson	-11018
▁retal	-11019
▁stric	-11020
▁theme	-11021
Western	-11022
assador	-11023
connect	-11024
healthy	-11025
ifiable	-11026
repared	-11027
seekers	-11028
▁10,000	-11029
▁Access	-11030
▁Nation	-11031
▁Saudis	-11032
▁Wealth	-11033
▁arable	-11034
▁bitter	-11035
▁cement	-11036
▁column	-11037
▁demise	-11038
▁dinner	-11039
▁domain	-11040
▁duties	-11041
▁hearts	-11042
▁interf	-11043
▁lender	-11044
▁looked	-11045
▁mature	-11046
▁multid	-11047
▁outset	-11048
▁pieces	-11049
▁plural	-11050
▁racial	-11051
▁recall	-11052
▁relied	-11053
▁rivals	-11054
▁sphere	-11055
▁traded	-11056
▁vaccin	-11057
business	-11058
icularly	-11059
property	-11060
▁Century	-11061
▁Florida	-11062
▁Hussein	-11063
▁Liberal	-11064
▁Mohamed	-11065
▁Navalny	-11066
▁Neither	-11067
▁Senator	-11068
▁Sustain	-11069
▁Taliban	-11070
▁Tobacco	-11071
▁charity	-11072
▁consent	-11073
▁feeding	-11074
▁fintech	-11075
▁greener	-11076
▁highway	-11077
▁husband	-11078
▁indices	-11079
▁liberty	-11080
▁lowered	-11081
▁manages	-11082
▁mapping	-11083
▁mindset	-11084
▁nurture	-11085
▁overest	-11086
▁panacea	-11087
▁paradig	-11088
▁picking	-11089
▁ranking	-11090
▁reprodu	-11091
▁rivalry	-11092
▁scourge	-11093
▁secured	-11094
▁signing	-11095
▁slavery	-11096
▁venture	-11097
▁volunte	-11098
▁wonders	-11099
▁worries	-11100
economics	-11101
prisingly	-11102
ratically	-11103
▁Medvedev	-11104
▁Mohammed	-11105
▁Opportun	-11106
▁Politics	-11107
▁Reducing	-11108
▁Slovakia	-11109
▁activism	-11110
▁attended	-11111
▁audience	-11112
▁blocking	-11113
▁centered	-11114
▁coercion	-11115
▁disabled	-11116
▁dissemin	-11117
▁distrust	-11118
▁emotions	-11119
▁enrolled	-11120
▁entitled	-11121
▁extremes	-11122
▁gasoline	-11123
▁holistic	-11124
▁immunity	-11125
▁midwives	-11126
▁mistaken	-11127
▁normally	-11128
▁opponent	-11129
▁planting	-11130
▁plastics	-11131
▁preceded	-11132
▁pregnant	-11133
▁proceeds	-11134
▁proteins	-11135
▁quarters	-11136
▁remedies	-11137
▁renegoti	-11138
▁societal	-11139
▁surgical	-11140
celeration	-11141
governance	-11142
revolution	-11143
▁Austerity	-11144
▁Colombian	-11145
▁Currently	-11146
▁Economist	-11147
▁academics	-11148
▁capturing	-11149
▁criticize	-11150
▁dimension	-11151
▁donations	-11152
▁installed	-11153
▁intensive	-11154
▁lifestyle	-11155
▁maintains	-11156
▁modernize	-11157
▁performed	-11158
▁reference	-11159
▁reporters	-11160
▁sacrifice	-11161
▁somewhere	-11162
▁watershed	-11163
▁wealthier	-11164
▁wholesale	-11165
iretroviral	-11166
▁Christians	-11167
▁Leadership	-11168
▁Regulators	-11169
▁appreciate	-11170
▁attainment	-11171
▁biological	-11172
▁calculated	-11173
▁capability	-11174
▁conviction	-11175
▁determines	-11176
▁discussing	-11177
▁exceptions	-11178
▁identities	-11179
▁multiplier	-11180
▁occupation	-11181
▁originally	-11182
▁prediction	-11183
▁prevalence	-11184
▁prohibited	-11185
▁prudential	-11186
▁regulating	-11187
▁reinforces	-11188
▁remembered	-11189
▁restricted	-11190
▁squandered	-11191
▁stagnating	-11192
▁subsidized	-11193
▁valuations	-11194
▁advancement	-11195
▁collaborate	-11196
▁contracting	-11197
▁disappeared	-11198
▁disruptions	-11199
▁enlightened	-11200
▁excessively	-11201
▁incremental	-11202
▁investigate	-11203
▁materialize	-11204
▁observation	-11205
▁philosopher	-11206
▁proposition	-11207
▁publication	-11208
▁restoration	-11209
▁restricting	-11210
▁separatists	-11211
▁shareholder	-11212
▁stabilizing	-11213
▁appreciation	-11214
▁calculations	-11215
▁digitization	-11216
▁explanations	-11217
▁incorporated	-11218
▁jurisdiction	-11219
▁preparedness	-11220
▁publications	-11221
▁subsequently	-11222
▁systemically	-11223
▁dysfunctional	-11224
▁exceptionally	-11225
▁inclusiveness	-11226
▁stabilization	-11227
▁strategically	-11228
16	-11229
22	-11230
AE	-11231
CK	-11232
HI	-11233
MA	-11234
RG	-11235
RT	-11236
BAI	-11237
ano	-11238
aya	-11239
fty	-11240
gra	-11241
liv	-11242
oir	-11243
ont	-11244
opt	-11245
ova	-11246
ows	-11247
pox	-11248
pse	-11249
rea	-11250
▁45	-11251
▁Ba	-11252
▁Bi	-11253
▁fr	-11254
abwe	-11255
agog	-11256
bean	-11257
half	-11258
imid	-11259
inav	-11260
made	-11261
odus	-11262
pert	-11263
pply	-11264
raid	-11265
thal	-11266
will	-11267
▁11%	-11268
▁45%	-11269
▁Blo	-11270
▁CIA	-11271
▁Mil	-11272
▁Tar	-11273
▁UAE	-11274
▁gal	-11275
▁haw	-11276
▁luc	-11277
▁rid	-11278
▁ske	-11279
▁spl	-11280
▁tum	-11281
▁ves	-11282
Great	-11283
addam	-11284
adian	-11285
aires	-11286
board	-11287
digit	-11288
eters	-11289
falls	-11290
imony	-11291
lined	-11292
luent	-11293
mopol	-11294
mount	-11295
roche	-11296
▁100%	-11297
▁Acad	-11298
▁Brex	-11299
▁Bure	-11300
▁Hald	-11301
▁Kyiv	-11302
▁Lear	-11303
▁Phil	-11304
▁Pope	-11305
▁Vict	-11306
▁adds	-11307
▁bird	-11308
▁boon	-11309
▁boss	-11310
▁clim	-11311
▁detr	-11312
▁hair	-11313
▁hasn	-11314
▁heed	-11315
▁hire	-11316
▁mudd	-11317
▁plot	-11318
▁pund	-11319
▁ride	-11320
▁ruin	-11321
▁warm	-11322
arming	-11323
arrass	-11324
encing	-11325
erated	-11326
idable	-11327
iteers	-11328
minist	-11329
paying	-11330
siders	-11331
▁1999,	-11332
▁Broad	-11333
▁Janet	-11334
▁Rabin	-11335
▁Scand	-11336
▁Small	-11337
▁aquif	-11338
▁bears	-11339
▁brill	-11340
▁cease	-11341
▁clash	-11342
▁cocoa	-11343
▁folly	-11344
▁forum	-11345
▁hence	-11346
▁highs	-11347
▁hotel	-11348
▁invar	-11349
▁items	-11350
▁kills	-11351
▁lifes	-11352
▁lying	-11353
▁maneu	-11354
▁paras	-11355
▁peril	-11356
▁preca	-11357
▁proof	-11358
▁refin	-11359
▁rogue	-11360
▁ruble	-11361
akening	-11362
ardship	-11363
ascular	-11364
changed	-11365
erating	-11366
ignific	-11367
imbabwe	-11368
million	-11369
natural	-11370
otherap	-11371
ounding	-11372
rategic	-11373
sighted	-11374
vereign	-11375
wellers	-11376
▁Alexey	-11377
▁Baltic	-11378
▁Carmen	-11379
▁Edward	-11380
▁Luxemb	-11381
▁Martin	-11382
▁Oxford	-11383
▁Recogn	-11384
▁Saddam	-11385
▁Serbia	-11386
▁Sergei	-11387
▁Things	-11388
▁aggrav	-11389
▁aiming	-11390
▁bacter	-11391
▁benign	-11392
▁blocks	-11393
▁finish	-11394
▁frozen	-11395
▁genius	-11396
▁hiring	-11397
▁judged	-11398
▁judges	-11399
▁laying	-11400
▁listen	-11401
▁motive	-11402
▁nobody	-11403
▁overst	-11404
▁provoc	-11405
▁pulled	-11406
▁refrig	-11407
▁repaid	-11408
▁restra	-11409
▁sevent	-11410
▁spiral	-11411
▁subtle	-11412
▁tasked	-11413
▁uneven	-11414
medicine	-11415
ongovern	-11416
positive	-11417
ropriate	-11418
▁Closing	-11419
▁Haldane	-11420
▁Nothing	-11421
▁Romania	-11422
▁asymmet	-11423
▁combust	-11424
▁compass	-11425
▁dubious	-11426
▁hacking	-11427
▁hazards	-11428
▁hearing	-11429
▁logical	-11430
▁loyalty	-11431
▁nominee	-11432
▁obscure	-11433
▁outsize	-11434
▁passion	-11435
▁pockets	-11436
▁preempt	-11437
▁presupp	-11438
▁priorit	-11439
▁prudent	-11440
▁publish	-11441
▁roadmap	-11442
▁satisfy	-11443
▁streams	-11444
▁suscept	-11445
▁torture	-11446
▁traders	-11447
▁tripled	-11448
▁tsunami	-11449
▁undergo	-11450
▁unleash	-11451
▁unpopul	-11452
▁utility	-11453
▁watched	-11454
education	-11455
eningitis	-11456
rochement	-11457
▁Exchange	-11458
▁Facility	-11459
▁Regional	-11460
▁abstract	-11461
▁agreeing	-11462
▁assembly	-11463
▁asserted	-11464
▁bailouts	-11465
▁burdened	-11466
▁district	-11467
▁elevated	-11468
▁endeavor	-11469
▁incompet	-11470
▁innocent	-11471
▁magazine	-11472
▁mistrust	-11473
▁navigate	-11474
▁paradigm	-11475
▁producer	-11476
▁promotes	-11477
▁protocol	-11478
▁ratified	-11479
▁reckless	-11480
▁refusing	-11481
▁rendered	-11482
▁respects	-11483
▁sequence	-11484
▁signaled	-11485
▁squarely	-11486
▁succeeds	-11487
▁sunlight	-11488
generation	-11489
▁2008-2009	-11490
▁Scandinav	-11491
▁accession	-11492
▁acquiring	-11493
▁anonymous	-11494
▁automated	-11495
▁balancing	-11496
▁ballistic	-11497
▁chemicals	-11498
▁communist	-11499
▁computing	-11500
▁condemned	-11501
▁defenders	-11502
▁detriment	-11503
▁diplomats	-11504
▁disparity	-11505
▁empirical	-11506
▁execution	-11507
▁exporting	-11508
▁insisting	-11509
▁localized	-11510
▁logistics	-11511
▁mentioned	-11512
▁overnight	-11513
▁purchased	-11514
▁rejecting	-11515
▁republics	-11516
▁satellite	-11517
▁stagnated	-11518
▁textbooks	-11519
▁unchanged	-11520
competitive	-11521
▁Management	-11522
▁Scientists	-11523
▁coalitions	-11524
▁collecting	-11525
▁discretion	-11526
▁disturbing	-11527
▁divestment	-11528
▁earthquake	-11529
▁invariably	-11530
▁manipulate	-11531
▁ministries	-11532
▁proponents	-11533
▁relentless	-11534
▁reluctance	-11535
▁separatist	-11536
▁Institution	-11537
▁bondholders	-11538
▁communicate	-11539
▁composition	-11540
▁continental	-11541
▁cooperating	-11542
▁determining	-11543
▁dismantling	-11544
▁distinction	-11545
▁distinguish	-11546
▁emergencies	-11547
▁groundwater	-11548
▁ingredients	-11549
▁interpreted	-11550
▁medications	-11551
▁practically	-11552
▁predictions	-11553
▁supervisors	-11554
▁trafficking	-11555
▁transmitted	-11556
▁vaccinators	-11557
▁deflationary	-11558
▁demographics	-11559
▁enthusiastic	-11560
▁indefinitely	-11561
▁prerequisite	-11562
▁safeguarding	-11563
ongovernmental	-11564
▁antiretroviral	-11565
▁democratically	-11566
▁distributional	-11567
▁organizational	-11568
▁reconstruction	-11569
IB	-11570
Is	-11571
RA	-11572
Sh	-11573
wa	-11574
ANN	-11575
IRO	-11576
ala	-11577
ara	-11578
fed	-11579
haw	-11580
iol	-11581
len	-11582
mas	-11583
oko	-11584
tun	-11585
ube	-11586
ude	-11587
usp	-11588
▁Ah	-11589
▁DU	-11590
▁RO	-11591
▁Ra	-11592
▁TV	-11593
CCup	-11594
CKHO	-11595
This	-11596
angs	-11597
arak	-11598
arry	-11599
dest	-11600
emia	-11601
epal	-11602
iana	-11603
iped	-11604
keep	-11605
laim	-11606
ococ	-11607
olic	-11608
onzo	-11609
riet	-11610
rior	-11611
wait	-11612
▁1.4	-11613
▁12%	-11614
▁17%	-11615
▁800	-11616
▁Ale	-11617
▁CDU	-11618
▁HFO	-11619
▁IDA	-11620
▁Jam	-11621
▁MGI	-11622
▁Mid	-11623
▁Nap	-11624
▁Rob	-11625
▁Wal	-11626
▁bat	-11627
▁boy	-11628
▁cub	-11629
▁hem	-11630
▁pal	-11631
▁pit	-11632
▁sin	-11633
▁sof	-11634
▁upt	-11635
▁yen	-11636
abric	-11637
aming	-11638
anges	-11639
denom	-11640
eches	-11641
enary	-11642
icted	-11643
iller	-11644
ivial	-11645
overy	-11646
oving	-11647
party	-11648
polit	-11649
prime	-11650
rians	-11651
ricks	-11652
smart	-11653
urban	-11654
vigor	-11655
▁1945	-11656
▁Cuba	-11657
▁Deng	-11658
▁Happ	-11659
▁Mult	-11660
▁Oslo	-11661
▁Pers	-11662
▁Prim	-11663
▁Prof	-11664
▁STAN	-11665
▁Soon	-11666
▁anch	-11667
▁audi	-11668
▁bars	-11669
▁conj	-11670
▁drew	-11671
▁duty	-11672
▁evil	-11673
▁grab	-11674
▁grip	-11675
▁icon	-11676
▁king	-11677
▁loos	-11678
▁lung	-11679
▁medd	-11680
▁mile	-11681
▁mole	-11682
▁nons	-11683
▁outf	-11684
▁rapp	-11685
▁scal	-11686
▁stig	-11687
▁unsu	-11688
▁wife	-11689
CKHOLM	-11690
Palest	-11691
around	-11692
fiscal	-11693
hecked	-11694
ifting	-11695
igious	-11696
issile	-11697
llment	-11698
middle	-11699
mitted	-11700
ogenic	-11701
parent	-11702
solete	-11703
▁1989,	-11704
▁2002,	-11705
▁2005.	-11706
▁2009.	-11707
▁About	-11708
▁Annan	-11709
▁Brook	-11710
▁Citiz	-11711
▁Immun	-11712
▁Media	-11713
▁Nepal	-11714
▁Sinai	-11715
▁Which	-11716
▁biote	-11717
▁brunt	-11718
▁climb	-11719
▁codes	-11720
▁crony	-11721
▁curve	-11722
▁dense	-11723
▁depth	-11724
▁dirty	-11725
▁disen	-11726
▁doors	-11727
▁enric	-11728
▁erode	-11729
▁expon	-11730
▁havoc	-11731
▁icddr	-11732
▁impet	-11733
▁inexp	-11734
▁looph	-11735
▁mayor	-11736
▁motor	-11737
▁paint	-11738
▁slide	-11739
▁squee	-11740
▁stuff	-11741
▁surre	-11742
▁touch	-11743
▁usher	-11744
▁wound	-11745
artisan	-11746
geoning	-11747
ilitary	-11748
inkable	-11749
iratory	-11750
manship	-11751
ococcal	-11752
owering	-11753
secular	-11754
venting	-11755
▁30,000	-11756
▁Bridge	-11757
▁Budget	-11758
▁Cancer	-11759
▁Church	-11760
▁Columb	-11761
▁Ending	-11762
▁HICCup	-11763
▁Kuwait	-11764
▁Maduro	-11765
▁Rogoff	-11766
▁Vision	-11767
▁abrupt	-11768
▁absurd	-11769
▁arrows	-11770
▁basket	-11771
▁boards	-11772
▁cartel	-11773
▁cattle	-11774
▁covers	-11775
▁dearth	-11776
▁deputy	-11777
▁dubbed	-11778
▁ethics	-11779
▁favors	-11780
▁golden	-11781
▁handle	-11782
▁inexor	-11783
▁noting	-11784
▁pretty	-11785
▁prolif	-11786
▁ratify	-11787
▁recipe	-11788
▁redund	-11789
▁render	-11790
▁reside	-11791
▁rounds	-11792
▁soccer	-11793
▁strife	-11794
▁suited	-11795
▁unsafe	-11796
TOCKHOLM	-11797
▁Overall	-11798
▁Respons	-11799
▁Studies	-11800
▁adapted	-11801
▁antagon	-11802
▁arising	-11803
▁augment	-11804
▁cardiov	-11805
▁crafted	-11806
▁crowded	-11807
▁culprit	-11808
▁curbing	-11809
▁depress	-11810
▁discern	-11811
▁endured	-11812
▁fallout	-11813
▁futures	-11814
▁heading	-11815
▁intends	-11816
▁interim	-11817
▁intimid	-11818
▁morally	-11819
▁officer	-11820
▁orchest	-11821
▁outward	-11822
▁pillars	-11823
▁rebound	-11824
▁shelter	-11825
▁smarter	-11826
▁startup	-11827
▁surging	-11828
▁turnout	-11829
▁updated	-11830
▁viewing	-11831
austerity	-11832
ilitating	-11833
itionally	-11834
mopolitan	-11835
nourished	-11836
▁Administ	-11837
▁Interest	-11838
▁JPMorgan	-11839
▁Managing	-11840
▁Official	-11841
▁Policies	-11842
▁STANFORD	-11843
▁adjusted	-11844
▁analyzed	-11845
▁breeding	-11846
▁centrist	-11847
▁comments	-11848
▁commerce	-11849
▁concepts	-11850
▁contains	-11851
▁determin	-11852
▁distract	-11853
▁exciting	-11854
▁hectares	-11855
▁linkages	-11856
▁mainland	-11857
▁memories	-11858
▁messages	-11859
▁newborns	-11860
▁opinions	-11861
▁outweigh	-11862
▁patience	-11863
▁premiums	-11864
▁propriet	-11865
▁selected	-11866
▁shipping	-11867
▁smallpox	-11868
▁speeches	-11869
▁stagnant	-11870
▁stressed	-11871
▁survived	-11872
▁uprising	-11873
▁violated	-11874
▁watching	-11875
▁Challenge	-11876
▁Improving	-11877
▁Solutions	-11878
▁accidents	-11879
▁audiences	-11880
▁classroom	-11881
▁disregard	-11882
▁documents	-11883
▁exclusive	-11884
▁exploited	-11885
▁incapable	-11886
▁indicated	-11887
▁intuitive	-11888
▁launching	-11889
▁liability	-11890
▁misguided	-11891
▁mosquitos	-11892
▁nightmare	-11893
▁overthrow	-11894
▁penalties	-11895
▁populated	-11896
▁reasoning	-11897
▁recycling	-11898
▁reforming	-11899
▁rotavirus	-11900
▁screening	-11901
▁selection	-11902
▁strengths	-11903
▁unchecked	-11904
▁underpins	-11905
▁unleashed	-11906
lightenment	-11907
▁Brexiteers	-11908
▁Luxembourg	-11909
▁adolescent	-11910
▁categories	-11911
▁celebrated	-11912
▁compounded	-11913
▁cumulative	-11914
▁depressing	-11915
▁devastated	-11916
▁divergence	-11917
▁eradicated	-11918
▁formidable	-11919
▁inherently	-11920
▁insolvency	-11921
▁laundering	-11922
▁	-11923
e	-11924
t	-11925
a	-11926
i	-11927
n	-11928
o	-11929
s	-11930
r	-11931
l	-11932
h	-11933
c	-11934
d	-11935
u	-11936
m	-11937
p	-11938
g	-11939
f	-11940
y	-11941
w	-11942
b	-11943
,	-11944
v	-11945
.	-11946
k	-11947
T	-11948
-	-11949
A	-11950
I	-11951
S	-11952
’	-11953
x	-11954
0	-11955
E	-11956
B	-11957
C	-11958
–	-11959
U	-11960
z	-11961
P	-11962
M	-11963
1	-11964
2	-11965
W	-11966
G	-11967
R	-11968
q	-11969
j	-11970
F	-11971
N	-11972
D	-11973
O	-11974
“	-11975
”	-11976
H	-11977
)	-11978
(	-11979
9	-11980
5	-11981
K	-11982
L	-11983
%	-11984
3	-11985
;	-11986
J	-11987
:	-11988
4	-11989
8	-11990
6	-11991
7	-11992
V	-11993
?	-11994
Y	-11995
